그는 9255
이 7462
나는 6970
그 4731
있다. 4218
수 3953
한 3357
한다. 3327
했다. 3273
그녀는 3194
우리는 3173
그의 2935
것이다. 2914
할 2352
것을 2146
의 2066
은 1994
그들은 1926
없다. 1865
에 1848
을 1802
하는 1721
이미 1720
그가 1677
너는 1579
하고 1469
아주 1447
내가 1371
일을 1319
하지 1262
나의 1259
이다. 1257
되었다. 1176
매우 1170
하였다. 1139
으로 1085
네가 1066
것은 1015
에서 1007
다 997
그녀의 992
이@@ 962
과 939
그를 930
는 925
있는 925
기@@ 922
많은 916
해 888
하게 887
하다. 874
너의 873
지@@ 847
모든 826
가 825
가@@ 818
수@@ 805
해야 804
대@@ 802
사@@ 794
않는다. 781
때 776
로 775
우리 763
다. 750
지 733
당신은 728
나를 727
전@@ 717
두 714
잘 711
않았다. 710
나에게 708
일@@ 707
모두 707
것이 696
다른 696
부@@ 694
좀 693
해서 684
시@@ 679
몇 676
더 668
고@@ 667
정@@ 664
어떤 655
된다. 651
고 650
도 627
우리가 622
주@@ 617
기 617
하기 613
자@@ 611
정말 611
하여 599
해@@ 592
인@@ 590
와 584
당신이 578
그에게 562
비@@ 561
우리의 554
게 544
, 543
너무 543
후에 537
구@@ 534
를 533
좋은 529
대해 526
다시 523
들은 522
그녀가 522
장@@ 517
어@@ 514
돈을 512
것 510
바로 509
소@@ 499
만약 495
. 494
하여금 492
상@@ 489
공@@ 488
아@@ 485
이런 481
반드시 476
나@@ 472
보@@ 464
모@@ 464
가장 462
우@@ 459
된 449
에게 446
말을 446
사람이 441
원@@ 440
신@@ 439
동@@ 436
일이 434
내 433
에는 430
하@@ 428
서@@ 427
이렇게 426
그것은 425
않다. 424
이것은 424
일에 424
다@@ 419
있었다. 419
화@@ 418
새 417
전에 414
오@@ 412
제@@ 411
곧 409
될 409
연@@ 408
있을 406
오늘 405
어떻게 404
기를 396
있습니까? 396
당신의 396
조@@ 395
적인 392
자신의 392
안 389
중@@ 387
선@@ 386
아직 385
말@@ 384
무@@ 384
었다. 382
한@@ 381
그@@ 381
큰 378
도@@ 377
너에게 375
같다. 371
어 369
갔다. 368
내@@ 368
마@@ 366
항상 366
말아라. 364
의@@ 363
유@@ 362
치@@ 361
세@@ 360
못했다. 360
지금 359
때문에 358
일은 357
경@@ 355
불@@ 353
"@@ 353
차를 352
작은 352
1@@ 351
주었다. 351
합니다. 350
적이 350
수가 348
스@@ 347
2@@ 347
위해 345
미@@ 344
위에 343
물@@ 342
리@@ 341
책을 340
되어 340
여@@ 338
교@@ 338
사람을 336
그것을 335
빨리 334
실@@ 333
그녀를 328
하다 326
성@@ 326
무슨 326
보았다. 324
받았다. 323
방@@ 321
양@@ 320
일 319
줄 319
들었다. 318
너를 318
5@@ 318
그들의 317
진@@ 314
없었다. 314
함께 312
대한 312
때, 310
것이라고 309
발@@ 307
없이 306
들을 303
시작했다. 302
갑자기 302
재@@ 301
새로운 301
산@@ 301
거@@ 299
주십시오. 299
위@@ 298
저@@ 298
안@@ 298
고, 296
차@@ 295
단@@ 295
입@@ 293
3@@ 293
개@@ 293
편지를 293
강@@ 292
집에 290
들이 290
열@@ 288
당@@ 287
사람은 287
적으로 285
배@@ 284
노@@ 282
적@@ 282
당신 281
만@@ 280
가지고 280
바@@ 280
하려고 280
파@@ 279
들@@ 279
피@@ 278
갈 278
그렇게 275
보다 275
문@@ 275
것입니다. 274
것에 273
까지 272
아니다. 271
가지 271
않을 269
바랍니다. 268
없는 268
생@@ 268
그들이 268
분@@ 267
볼 267
비가 264
자는 262
또 261
관@@ 260
가는 260
감@@ 259
소리를 259
과@@ 257
다고 257
만일 257
서 256
본 256
위해서 256
많이 254
시간을 254
동안 254
다는 253
반@@ 252
직@@ 252
! 249
타@@ 249
추@@ 248
문제를 247
물건을 247
늘 247
대하여 247
명@@ 246
거의 246
사람들은 246
우리에게 245
가서 244
어제 244
말했다. 243
따라 243
식@@ 243
줄곧 243
용@@ 242
질@@ 242
옷을 242
이러한 242
속@@ 241
문을 239
물을 239
작@@ 239
10@@ 239
면 238
하도록 238
통@@ 237
번 236
서로 236
하면 236
시켰다. 235
계속 234
생각@@ 234
두@@ 231
예@@ 231
지는 231
대해서 231
결코 231
매@@ 230
사람들이 230
여전히 228
올 227
자 226
좋아한다. 226
인 224
심@@ 224
학@@ 224
려 223
있습니다. 223
주세요. 223
요@@ 222
보고 222
히 221
증@@ 220
절@@ 220
단지 219
같은 218
생각한다. 218
왔다. 217
만 217
그녀에게 215
완전히 215
느꼈다. 215
지를 213
국@@ 212
회@@ 212
이번 212
라고 211
소식을 210
되는 210
결@@ 209
호@@ 208
변@@ 208
자신이 208
잡@@ 207
시간이 207
졌다. 206
집을 205
리는 205
도록 204
청@@ 203
않고 203
얼마나 202
담@@ 202
기가 202
온 201
달@@ 200
살@@ 200
병@@ 199
해라. 199
합니까? 199
니? 199
않은 198
간@@ 197
못@@ 196
하는데 195
면@@ 194
집@@ 194
먹@@ 194
되@@ 194
어느 194
사는 194
로@@ 193
대로 193
알@@ 192
길을 192
목@@ 192
먼저 192
영@@ 192
때문에, 192
출@@ 191
습니까? 191
우리를 191
위하여 191
려고 189
계@@ 188
한번 188
총@@ 187
병이 187
체@@ 187
비록 187
잠@@ 186
4@@ 186
는다. 185
남@@ 185
야@@ 184
막@@ 184
복@@ 184
기는 184
귀@@ 183
초@@ 183
라. 182
금@@ 182
없@@ 181
건@@ 181
6@@ 181
하기를 181
아이는 181
있어서 181
새@@ 180
표@@ 179
악@@ 179
좋다. 179
행@@ 179
물이 179
더@@ 179
지만, 179
리 178
기로 178
대단히 178
장을 178
당신에게 178
종@@ 177
내일 177
누가 177
야 177
후 176
현@@ 176
바란다. 175
났다. 174
후@@ 174
광@@ 173
명의 173
외@@ 173
쳤다. 173
드@@ 173
중에 173
였다. 172
속에서 171
포@@ 170
독@@ 170
냈다. 170
하나 170
본@@ 169
시작@@ 169
자가 169
아이들은 169
손을 168
보내@@ 168
현재 168
사람의 168
빠르게 167
각@@ 166
집은 166
타고 165
등@@ 164
박@@ 164
한다고 164
말은 163
이라고 163
는데 163
줄@@ 162
자를 161
갈@@ 161
세 161
버@@ 161
천@@ 160
일이다. 160
범@@ 159
어서 159
약@@ 159
함을 158
여기에 158
합@@ 158
의해 158
아이를 158
언제 158
철@@ 157
걸@@ 157
기에 157
임@@ 157
격@@ 156
그런 156
토@@ 156
조금도 156
크게 155
나 155
라@@ 155
아 155
안에 155
되지 155
나와 155
못한다. 154
몸을 154
알고 154
개의 154
회사는 154
보냈다. 153
좋아@@ 152
않@@ 152
있니? 152
우리@@ 152
서, 152
음@@ 151
약간의 151
군@@ 150
속에 150
년 150
벌@@ 149
다! 148
화가 148
난@@ 148
는데, 148
창@@ 147
날@@ 147
진 147
돌@@ 147
하고, 147
있다고 147
않는 147
우리들의 147
그러한 147
계획을 146
꼭 145
입니까? 145
날씨가 145
이야기를 145
쉽게 144
결국 144
던 144
화를 143
싶다. 143
수는 143
내게 142
해서는 142
다음 142
급@@ 142
그것이 142
물 141
길 141
서는 141
간다. 141
무엇을 141
배는 141
우리들은 141
왕@@ 140
떠@@ 140
왜 140
워@@ 139
있@@ 139
시간 139
열심히 139
없습니다. 138
밀@@ 138
책은 138
그러나 138
소리가 138
그와 138
하다고 138
법@@ 137
폭@@ 137
일찍 137
차 137
들어@@ 137
대 137
사람@@ 137
평@@ 137
여러 137
들어갔다. 137
전혀 137
말이 136
20@@ 136
가득 136
당신측의 136
듣고 136
문제에 136
처럼 135
손@@ 135
더욱 135
이는 135
있다는 135
뒤@@ 134
채@@ 134
입니다. 134
근@@ 134
풍@@ 134
처@@ 134
품@@ 134
해졌다. 133
니@@ 133
같이 133
자의 133
리가 133
말하는 133
놓@@ 132
운@@ 132
좋@@ 132
습니다. 132
나쁜 132
았다. 132
머리를 132
의견을 132
전화를 132
배가 131
필요로 131
언@@ 131
나갔다. 131
접@@ 131
때@@ 131
말한 131
끝@@ 130
8@@ 130
있기를 130
며 130
침@@ 129
장 129
가격을 129
개를 129
사용@@ 129
팔@@ 129
사람에게 129
귀사가 129
다면, 129
즉시 128
내려@@ 128
울@@ 128
조금 128
코@@ 128
전 128
확실히 128
들의 128
때문이다. 128
져 127
크@@ 127
죽@@ 127
서를 127
e@@ 127
판매@@ 127
권@@ 126
놀@@ 126
트@@ 126
대를 126
설@@ 126
순@@ 126
리를 126
지불@@ 126
차는 126
개가 126
진다. 125
지가 125
질 125
하나를 125
생각을 125
가고 124
망@@ 124
은@@ 124
애@@ 124
아서 124
않으면 124
난다. 123
나로 123
사람이다. 123
책@@ 122
떨어졌다. 122
력이 122
허@@ 121
매일 121
어린 121
앞으로 121
가능한 121
태@@ 121
사 120
결정했다. 120
했@@ 120
투@@ 120
형@@ 120
버렸다. 120
치는 120
백@@ 119
수를 119
생산@@ 119
온@@ 119
취@@ 119
한다는 119
해서, 119
환@@ 118
하며 118
돈이 118
배를 118
축@@ 118
나왔다. 118
여 118
그들 118
날 118
회사의 118
이를 117
차가 117
린다. 117
쓰@@ 117
거기에 117
와서 117
렸다. 117
선생님은 117
귀사의 117
암@@ 116
러 116
당했다. 116
그들을 116
길@@ 116
점@@ 116
하기로 116
나서 116
중의 116
번@@ 115
웃@@ 115
술을 115
받@@ 115
려@@ 115
네 115
인해 115
들 115
개 114
뛰어@@ 114
일의 114
말할 114
지금은 114
북@@ 113
쳐@@ 113
항@@ 113
역@@ 113
물었다. 113
마라. 113
전부 113
위의 113
난 113
곳에 113
월@@ 113
는지 113
썼다. 112
주의@@ 112
t@@ 112
별@@ 112
올@@ 112
뿐이다. 112
판@@ 111
드립니다. 111
해도 111
년@@ 111
원을 111
장의 111
웠다. 111
각 111
간 110
음을 110
시 110
장에 110
농@@ 110
중요한 110
향해 110
좋지 110
것@@ 109
앞@@ 109
참@@ 109
안다. 109
숙@@ 109
방을 109
아이들이 109
아마 109
a@@ 109
있게 109
대의 109
표를 108
맞@@ 108
보러 108
넘@@ 108
돌아@@ 108
색@@ 108
7@@ 108
것으로 108
권을 108
높은 108
경찰은 108
놓았다. 108
물은 107
살 107
눈@@ 107
상황을 107
력을 107
아이가 107
낼 107
지나갔다. 106
계산@@ 106
었@@ 106
찬@@ 106
베@@ 106
할@@ 106
하나의 106
에서는 106
지만 106
가격은 106
문이 105
사가 105
충@@ 105
날이 105
준비@@ 105
사를 105
골@@ 105
긴 105
삼@@ 105
아이@@ 104
르@@ 104
싸@@ 104
러@@ 104
맡@@ 104
없을 104
이에 104
레@@ 104
혼@@ 104
되었@@ 104
릴 104
안의 104
그로 104
관한 104
아니@@ 103
터@@ 103
민@@ 103
응@@ 103
위로 103
다만 103
이름을 103
계획은 103
당신측이 103
여기에서 103
15@@ 103
눈이 102
는@@ 102
이상 102
50@@ 102
받지 102
라는 102
중 102
기억@@ 102
충분한 102
것입니까? 102
좋아하지 102
어렵다. 101
리지 101
너@@ 101
많다. 101
반대@@ 101
장이 101
깊이 101
지지 101
음식을 101
부터 101
연구@@ 101
지나@@ 100
끼@@ 100
이해@@ 100
많@@ 100
여행@@ 100
밖에 100
o@@ 100
당신을 100
게@@ 100
인이 100
같@@ 99
지에 99
않았@@ 99
산 99
지난 99
필요가 98
따@@ 98
가를 98
얼@@ 98
도착@@ 98
것이@@ 98
아니면 98
방은 98
도를 98
운전@@ 98
만들었다. 98
좋겠다. 98
우리측은 98
바람이 97
끊@@ 97
물에 97
...@@ 97
까@@ 97
부를 97
했을 97
받을 97
알았다. 97
풀@@ 96
치 96
약간 96
갔@@ 96
높@@ 96
든 96
성을 96
따라서 96
결정@@ 96
있는지 96
았@@ 96
이었다. 96
참가@@ 96
황@@ 95
좋아하는 95
오는 95
설명@@ 95
의사는 95
주문@@ 95
하려 95
12@@ 95
했습니다. 95
요구@@ 95
들과 95
한다면 95
중이다. 94
기회를 94
술@@ 94
너 94
송@@ 94
싶지 94
보인다. 94
완@@ 94
편@@ 94
때는 94
오래된 94
알려@@ 94
으나, 94
공을 93
논@@ 93
극@@ 93
와@@ 93
프@@ 93
워 93
치고 93
먹을 93
위에서 93
때까지 93
니 93
보지 93
지의 93
마치 93
점을 92
아름다운 92
내렸다. 92
오래 92
방금 92
모른다. 92
읽@@ 92
처리@@ 92
일로 92
시에 92
개는 92
어야 92
상의 92
면서 91
발생@@ 91
상을 91
막 91
들어 91
만족@@ 91
믿는다. 91
성공@@ 91
집에서 91
그들에게 91
문제는 91
연기@@ 91
시킬 91
참을 91
정을 90
데리고 90
승@@ 90
지고 90
담배를 90
압@@ 90
메@@ 90
그다지 90
i@@ 90
방법이 90
운 90
아침 90
한다면, 90
니까? 89
부족@@ 89
알아@@ 89
심하게 89
9@@ 89
리고 89
엄@@ 89
만한 89
힘을 89
방문@@ 89
잘@@ 89
지도 89
자신을 89
만났다. 89
다면 89
눈을 88
깨@@ 88
트 88
스 88
되고 88
로부터 88
알지 88
어떠한 88
주 88
으면 88
육@@ 88
비를 88
종류의 88
찾았다. 88
문 87
하러 87
습@@ 87
꺼@@ 87
신 87
마음이 87
측의 87
기의 87
원이 87
그렇지 87
원은 87
해야만 87
내에 87
능@@ 87
있도록 87
다, 87
자들은 87
야만 87
것과 87
하는데, 87
정부는 87
이가 86
B@@ 86
출발@@ 86
위를 86
힘@@ 86
정 86
가져@@ 86
넣@@ 86
있었@@ 86
제 86
갖고 86
밤에 86
적의 86
넣었다. 86
너와 86
잠시 86
존은 86
에서, 86
에@@ 85
도움을 85
중국@@ 85
: 85
이것이 85
비행@@ 85
여자 85
받았@@ 85
못할 85
방법을 85
산다. 85
받은 85
생각했다. 85
쉬@@ 84
병을 84
스럽게 84
d@@ 84
집 84
적 84
마음을 84
도대체 84
겠다. 84
려서 84
각종 84
샀다. 84
에, 84
굴@@ 83
쪽으로 83
도가 83
사랑@@ 83
누군가가 83
이전에 83
했다고 83
얻을 83
탐@@ 82
어졌다. 82
폐@@ 82
패@@ 82
라 82
이야기@@ 82
발전@@ 82
업@@ 82
부는 82
왔@@ 82
믿@@ 82
않도록 82
저녁 82
편지에 82
을@@ 82
시험에 82
영어를 82
데@@ 81
녹@@ 81
먹었다. 81
아무도 81
탄@@ 81
최@@ 81
얻었다. 81
정말로 81
쓸 81
도움이 81
소리@@ 81
결혼@@ 81
이고 81
달라고 81
벽@@ 80
가격이 80
앉@@ 80
으로부터 80
올랐다. 80
들에게 80
하라고 80
이라는 80
공부@@ 80
원래 80
측은 80
호 79
퍼@@ 79
기다리고 79
원 79
몰@@ 79
변했다. 79
죽었다. 79
필요@@ 79
s@@ 79
노동@@ 79
자기의 79
린 79
주는 79
속으로 79
데 79
점차 79
운동@@ 79
경찰이 79
준비를 79
아는 79
모르겠다. 79
인을 78
기록@@ 78
이나 78
쳐 78
방 78
거리며 78
구를 78
도는 78
비로소 78
행동은 78
것처럼 78
C@@ 77
에도 77
했습니까? 77
으@@ 77
하세요. 77
잔@@ 77
오지 77
친구@@ 77
필@@ 77
천천히 77
나무 77
점이 77
대답@@ 77
비교적 77
적은 77
생활을 77
이야기 77
가격@@ 77
했지만, 77
선이 76
붙@@ 76
? 76
듯이 76
-@@ 76
요구에 76
색 76
착@@ 76
협@@ 76
토론@@ 76
분명히 76
제시@@ 76
곳@@ 76
상 76
냐? 76
아버지는 76
맞지 76
싶@@ 76
제공할 76
욕@@ 75
문은 75
충분히 75
상당히 75
든지 75
어디에 75
제가 75
아마도 75
빠@@ 74
적을 74
감사합니다. 74
A@@ 74
납@@ 74
꾸@@ 74
.@@ 74
카@@ 74
하다는 74
어려운 74
받아들일 74
견@@ 74
계획@@ 74
알게 74
깊은 74
곳에서 74
있어 74
자주 74
소년은 74
자동차가 74
으니 74
누@@ 73
금을 73
힘껏 73
빨@@ 73
아무런 73
인은 73
향@@ 73
있으면 73
류@@ 73
정은 73
정도로 73
빈@@ 73
거절@@ 73
렸@@ 73
만을 73
스스로 73
동의@@ 73
특@@ 73
활@@ 73
주시겠습니까? 73
휴가를 73
쓰는 73
내지 73
희망한다. 73
장은 73
안에서 73
린@@ 73
영화@@ 73
몸이 73
필요하다. 73
다; 73
새로 73
밤 73
우리들이 73
에서의 73
없다고 73
위해서, 73
불을 72
쟁@@ 72
얻@@ 72
불이 72
보는 72
곡@@ 72
잃었다. 72
학교에 72
휴@@ 72
자세히 72
l@@ 72
칠@@ 72
책임@@ 72
방에 72
아직도 72
숨@@ 72
남자@@ 72
보았@@ 72
성이 72
어쩔 72
대가 72
완성@@ 72
끊임없이 72
제공@@ 72
립@@ 71
온다. 71
어려움을 71
났@@ 71
잘못 71
의를 71
해가 71
뜻을 71
싫어한다. 71
곳을 71
도로 71
수리@@ 71
소를 71
만큼 71
얘기@@ 71
진실@@ 71
발견@@ 71
후에, 71
선을 70
비밀을 70
휘@@ 70
사람 70
주시@@ 70
잡았다. 70
겠@@ 70
입을 70
앞에 70
중에서 70
말 70
사람들의 70
세를 70
원한다. 70
자리를 70
총을 70
워서 70
갈수록 70
사실을 70
몇몇 70
어린@@ 70
자로 70
진행@@ 70
사람들에게 70
선택@@ 70
합시다. 70
기타 70
왜냐하면 70
용 69
담을 69
란@@ 69
퇴@@ 69
급히 69
100@@ 69
믿을 69
칠 69
선 69
쳐서 69
걱정@@ 69
져서 69
스는 69
사의 69
졌@@ 69
느낀다. 69
없게 69
스러운 69
어머니는 69
사실@@ 69
떠났다. 69
하는지 69
했다는 69
으나 69
으니, 69
나가@@ 68
규@@ 68
디@@ 68
노력@@ 68
떠나@@ 68
받아 68
늦게 68
얼굴을 68
꽉 68
만나@@ 68
알 68
사람들을 68
낮@@ 68
자에게 68
준 68
력@@ 68
닦@@ 67
고용@@ 67
리에 67
약을 67
앉아 67
점점 67
심을 67
장으로 67
트를 67
부 67
겼다. 67
마다 67
나타@@ 67
당신들이 67
계획에 67
년에 67
했는데, 67
바꾸@@ 66
빠졌다. 66
등을 66
격을 66
오늘은 66
혔다. 66
함@@ 66
친@@ 66
집으로 66
벗@@ 66
들어왔다. 66
못하게 66
,@@ 66
이상@@ 66
봉@@ 66
찍@@ 66
문제가 66
오히려 66
빛@@ 66
시다. 66
달 66
말에 66
걸어@@ 66
필요한 66
마침 66
니, 66
지, 66
요. 65
실을 65
이제 65
신속하게 65
졸@@ 65
경찰@@ 65
돈은 65
시험@@ 65
겨@@ 65
낸다. 65
다시는 65
울 65
있지 65
보였다. 65
전화@@ 65
영원히 65
찾을 65
식 65
집의 65
상품을 65
서야 65
번째 65
분명 65
하겠다. 65
아이들을 65
하길 65
고있다. 65
느@@ 64
큰@@ 64
어라. 64
죽은 64
주시면 64
배우@@ 64
검사@@ 64
키@@ 64
친구를 64
질을 64
앉았다. 64
30@@ 64
입었다. 64
찾@@ 64
발을 64
나무@@ 64
것보다 64
결정을 64
드는 64
준다. 64
했던 64
일하는 64
건축@@ 64
받고 64
하였@@ 64
여자@@ 64
절대로 64
너희@@ 64
거라고 64
주시기 64
하였으나, 64
안된다. 64
닫@@ 63
라! 63
범죄@@ 63
늘@@ 63
창문을 63
도착했다. 63
루@@ 63
감히 63
행복@@ 63
검@@ 63
원하지 63
히@@ 63
기쁘게 63
상이 63
나누어 63
er@@ 63
계속해서 63
과학@@ 63
운반@@ 63
몸에 63
남자 63
생각이 63
받는 63
언제나 63
모두는 63
정한 63
및 63
보고@@ 62
대에 62
뜨@@ 62
옷@@ 62
속도를 62
도망@@ 62
세요. 62
염@@ 62
안을 62
석@@ 62
업 62
의사가 62
라, 62
품을 62
축구@@ 62
이지 62
셨다. 62
다르다. 62
명 62
량이 62
말하지 62
지게 62
입고 62
때에 62
가가 62
사이에 62
자, 62
있다면 62
했기 62
19@@ 62
건설@@ 62
하며, 62
있기 62
있다면, 62
조용히 61
리게 61
벌써 61
락@@ 61
빌@@ 61
다가 61
죄@@ 61
비용을 61
치를 61
시간에 61
되면 61
사람으로 61
머@@ 61
놀라서 61
계획이 61
다음@@ 61
지지@@ 61
고려@@ 61
장에서 61
당신과 61
심이 61
슬@@ 61
손에 61
세가 61
보낼 61
'@@ 61
이해할 61
있어서, 61
표 60
저녁@@ 60
페@@ 60
노래를 60
; 60
해결@@ 60
두었다. 60
듣@@ 60
가야 60
흔들@@ 60
나게 60
벽에 60
력은 60
아무 60
책 60
돌아올 60
감사@@ 60
넘어@@ 60
자동차 60
하여, 60
대는 60
덮@@ 60
글@@ 60
량@@ 60
먹고 60
아침에 60
전체 60
최근 60
실패@@ 60
영향을 60
가볍게 60
써서 60
주의 60
관련된 60
실 59
큰소리로 59
올라@@ 59
네@@ 59
유행@@ 59
기차가 59
고통@@ 59
시간@@ 59
받는다. 59
대표@@ 59
써@@ 59
수의 59
매 59
책이 59
in@@ 59
나이가 59
회사가 59
가치가 59
하지만, 59
자이다. 59
수도 59
저는 59
자마자 59
훌륭한 59
년이 59
신용장을 59
억@@ 58
해를 58
선은 58
회를 58
마침내 58
보통 58
래@@ 58
편지 58
구 58
유지@@ 58
일종의 58
리로 58
답@@ 58
홍@@ 58
주의를 58
소식은 58
정에 58
테@@ 58
가려고 58
5월 58
..@@ 58
행동을 58
존@@ 58
둥@@ 58
하기에 58
시계를 57
드리@@ 57
꽃@@ 57
인다. 57
잘못을 57
주지 57
어를 57
속의 57
파운드를 57
가에 57
둘@@ 57
쓰지 57
치지 57
놀라게 57
아니라 57
통해 57
방의 57
랑@@ 57
통지@@ 57
모두들 57
y@@ 57
다리를 57
깨끗이 57
찰@@ 57
세웠다. 57
h@@ 57
끝까지 57
생활@@ 57
않아 57
보기에 57
영국@@ 57
확인@@ 57
었을 57
가지@@ 56
른 56
지로 56
유리@@ 56
쉽다. 56
크다. 56
쓴다. 56
얼굴이 56
희망합니다. 56
름@@ 56
책임을 56
정확한 56
홀@@ 56
동 56
회의에 56
주에 56
않게 56
건의를 56
측@@ 56
잃@@ 56
것이라는 56
요구했다. 56
차에 56
우는 56
스트@@ 56
으며 56
뒤로 56
이용@@ 56
회에 56
식을 56
인지 56
듣지 56
우연히 56
낸 56
겠습니다. 56
임을 56
여긴다. 56
기차를 56
마지막 56
으며, 56
면, 56
주문을 56
보험@@ 55
흥@@ 55
성실@@ 55
회복@@ 55
체 55
반 55
어디에서 55
음 55
머리가 55
시를 55
화 55
잠을 55
이상한 55
돌려 55
상자를 55
것도 55
바람에 55
때때로 55
됩니까? 55
방으로 55
대리@@ 55
요구를 55
즉각 55
하니 55
원의 55
기차는 55
차례 55
점은 55
명을 55
음악@@ 55
이기 55
정치@@ 55
신용@@ 55
원하는 55
신청@@ 55
젊은 55
일한다. 55
자동차는 55
학교에서 55
발견했다. 55
뇌@@ 54
틀@@ 54
겨우 54
자연@@ 54
배의 54
좌@@ 54
먹는다. 54
멀@@ 54
도와@@ 54
일본@@ 54
흐@@ 54
기울@@ 54
적이다. 54
돌아갔다. 54
도착할 54
들었@@ 54
걸었다. 54
병은 54
안전@@ 54
고는 54
말고 54
그곳에 54
리의 54
비는 54
도시는 54
방이 54
갑@@ 54
서서히 54
나도 54
며칠 54
한창 54
500@@ 54
공격@@ 54
오랜 54
성 54
쪽에 54
명은 54
거행@@ 54
통과@@ 54
체가 54
보이지 54
씩 54
느냐? 54
그것의 54
가격으로 54
앉아서 54
있는데, 54
금 53
떼@@ 53
오랫동안 53
뒤에 53
냉@@ 53
돈@@ 53
늦@@ 53
약속을 53
친다. 53
먼 53
기쁘다. 53
씻@@ 53
John은 53
신문을 53
건강@@ 53
조사@@ 53
음이 53
정이 53
커@@ 53
밥을 53
건강에 53
판을 53
대부분의 53
연주@@ 53
스를 53
운송@@ 53
줄을 53
차의 53
어는 53
즈@@ 53
기계는 53
쓴 53
것인지 53
또한 53
친구가 53
상황이 53
보내 53
들에 53
혹은 53
막을 53
시험을 52
내려 52
마시@@ 52
산을 52
돌아가@@ 52
있으@@ 52
r@@ 52
훨씬 52
한바탕 52
자동차를 52
아이들에게 52
믿지 52
알려 52
앞에서 52
니다. 52
모두가 52
얼굴에 52
정했다. 52
량은 52
되기를 52
기술@@ 52
아야 52
c@@ 52
인도@@ 52
내고 52
제기@@ 52
이야기는 52
증을 52
u@@ 52
받아들@@ 52
보면 52
이면 52
하고자 52
인정@@ 52
까 52
탁@@ 52
하면서 52
아이의 52
지나치게 51
관 51
서서 51
소는 51
때렸다. 51
쳤@@ 51
하시@@ 51
어려@@ 51
태양이 51
밝@@ 51
그림을 51
거리를 51
연결@@ 51
낮은 51
저녁에 51
못 51
더이상 51
이웃@@ 51
끌어@@ 51
돌아왔다. 51
명이 51
en@@ 51
구매@@ 51
낙@@ 51
계속@@ 51
오후 51
감사를 51
당한 51
소식이 51
화물@@ 51
인의 51
당신들의 51
만이 51
다음에 51
부의 51
이루@@ 51
약속@@ 51
발생한 51
우리측의 51
비 50
시작한다. 50
도에 50
여기@@ 50
도의 50
람@@ 50
간의 50
길은 50
S@@ 50
주문서를 50
빼@@ 50
무거운 50
얼마 50
론@@ 50
신문@@ 50
올렸다. 50
팔을 50
였@@ 50
어져 50
혀 50
씨는 50
되어@@ 50
구는 50
외국@@ 50
찼다. 50
마땅히 50
즐겁게 50
물건은 50
말라고 50
H@@ 50
회의 50
상품의 50
교통@@ 50
표현@@ 50
방송@@ 50
대량의 50
전에, 50
주를 49
밖으로 49
집중@@ 49
찾아@@ 49
바라@@ 49
받았습니다. 49
호를 49
피곤@@ 49
운이 49
본다. 49
상은 49
액@@ 49
탈@@ 49
열을 49
부가 49
징@@ 49
자전거를 49
b@@ 49
분 49
꼬@@ 49
하자. 49
포장@@ 49
자신@@ 49
성공할 49
이로 49
역을 49
트는 49
긴@@ 49
팀은 49
선생님@@ 49
k@@ 49
물건@@ 49
관계가 49
하니? 49
뜻@@ 49
제를 49
으려고 49
겠다고 49
상세한 49
영화를 49
못한 49
감사드립니다. 49
하면, 49
술 48
치가 48
거렸다. 48
구나! 48
들고 48
섞@@ 48
선생님이 48
부인@@ 48
저 48
끌@@ 48
있어야 48
뜨거운 48
만든 48
외출@@ 48
g@@ 48
고를 48
정리@@ 48
나누@@ 48
식사를 48
천 48
시간은 48
않아서 48
바꾸었다. 48
정신을 48
내는 48
머리 48
초청@@ 48
의해서 48
물건이 48
거리@@ 48
제조@@ 48
단 48
빠른 48
노인은 48
배우는 48
방에서 48
도울 48
당신들은 48
하루 48
공급@@ 48
그녀 48
아서, 48
르지 47
없어@@ 47
움직@@ 47
나지 47
묻@@ 47
조심@@ 47
기다리@@ 47
굽@@ 47
득@@ 47
브@@ 47
문에 47
궁@@ 47
섰다. 47
희@@ 47
아침@@ 47
십시오. 47
m@@ 47
연설@@ 47
그에 47
상품@@ 47
낯선 47
흥분@@ 47
티@@ 47
p@@ 47
하지만 47
정확@@ 47
행동@@ 47
교육@@ 47
받아야 47
해야@@ 47
w@@ 47
그녀와 47
학교 47
재미있는 47
측이 47
인하여 47
나갈 47
특별히 47
족@@ 47
너무나 47
어도 47
하십시오. 47
수표를 47
로는 47
대답을 47
흥미를 47
생각합니다. 47
국가@@ 47
이고, 47
떨@@ 46
내리@@ 46
감사 46
마음에 46
탕@@ 46
감사하겠습니다. 46
혈@@ 46
누구@@ 46
가르@@ 46
열 46
당연히 46
상에 46
감정을 46
량을 46
돌려@@ 46
시가 46
따라@@ 46
회의를 46
묶@@ 46
발 46
빛을 46
시는 46
불안@@ 46
밤을 46
막았다. 46
불 46
영화는 46
져@@ 46
음식@@ 46
녀@@ 46
무엇@@ 46
사에 46
매년 46
적당한 46
도시의 46
통해서 46
성공을 46
예술@@ 46
선적@@ 46
당 46
회사에 46
는지를 46
오퍼를 46
고기를 45
친 45
업을 45
바보@@ 45
제거@@ 45
잊@@ 45
물러@@ 45
모자를 45
쓰고 45
페이@@ 45
가능@@ 45
마세요. 45
레이@@ 45
스럽다. 45
외에 45
재미@@ 45
T@@ 45
사망@@ 45
통의 45
집이 45
자기 45
하나가 45
묵@@ 45
기대@@ 45
털@@ 45
이동@@ 45
안은 45
든다. 45
수입@@ 45
내서 45
상상@@ 45
신을 45
월에 45
사로 45
나무가 45
익@@ 45
곳이 45
할지 45
대단한 45
기회가 45
분이 45
주요 45
예상@@ 45
노력을 45
의심@@ 45
직접 45
자와 45
르고 45
놀랐다. 45
그날 45
생각하지 45
점에 45
혼자 45
사고가 45
생각하니? 45
...월 45
닥@@ 44
란 44
등이 44
봐@@ 44
축하@@ 44
걸어 44
결과는 44
고양이는 44
올라갔다. 44
국을 44
설치@@ 44
받아@@ 44
원합니다. 44
25@@ 44
싫@@ 44
아래로 44
르게 44
하나@@ 44
영어 44
자. 44
나타났다. 44
ar@@ 44
섬@@ 44
파도가 44
부분을 44
비행기는 44
스런 44
아래@@ 44
도로를 44
일으켰다. 44
멈추었다. 44
오늘@@ 44
까지는 44
소리로 44
파운드@@ 44
백 44
달러를 44
귀 44
림@@ 44
즐거@@ 44
이유가 44
화물을 44
우리측이 44
찾고 44
변호@@ 44
지도@@ 44
실망@@ 44
맛@@ 44
참가할 44
봐 44
확@@ 44
하나이다. 44
도시@@ 44
없어서 44
제때에 44
거기에서 44
기꺼이 44
개설@@ 44
시작하였다. 44
귀하가 44
소리 43
보를 43
분을 43
양 43
씨@@ 43
편지는 43
우편@@ 43
하십니까? 43
학을 43
질이 43
잔 43
책상 43
짐을 43
여서 43
놓고 43
곳으로 43
터를 43
보증@@ 43
겨 43
표시@@ 43
담배 43
나무를 43
땅에 43
치료@@ 43
6월 43
품은 43
회는 43
마음@@ 43
에게는 43
an@@ 43
허락@@ 43
나, 43
먹는 43
위협@@ 43
돕@@ 43
원으로 43
그리고 43
미국@@ 43
동봉@@ 43
관계@@ 43
누워 43
되게 43
매주 43
소설@@ 43
그때 43
지었다. 43
옷은 43
약 43
어디@@ 43
보낸 43
했는지 43
자유@@ 43
계약@@ 43
찾아 43
국민@@ 43
도와 43
고개를 43
감동@@ 43
우리와 43
마리의 43
사람과 43
동안에 43
없다는 43
쪽@@ 42
찌@@ 42
켜@@ 42
료를 42
남은 42
곤란@@ 42
빚@@ 42
부딪@@ 42
짜@@ 42
묘사@@ 42
무엇입니까? 42
십니까? 42
들어오@@ 42
건강을 42
잠이 42
하셨다. 42
부러@@ 42
하겠습니다. 42
미 42
하실 42
미국 42
머리@@ 42
숫@@ 42
날씨는 42
드를 42
낫다. 42
보호@@ 42
도시를 42
감을 42
뿐만 42
품 42
손으로 42
길에서 42
강은 42
여러@@ 42
바람을 42
여행을 42
배 42
오후에 42
색이 42
전보를 42
여겼다. 42
전해@@ 42
역시 42
가로@@ 42
우리들에게 42
갖@@ 42
분노@@ 42
관계를 42
빗@@ 42
사냥@@ 42
지? 42
안으로 42
그림은 42
갚@@ 42
200@@ 42
폭발@@ 42
사회@@ 42
아무것도 42
고했다. 42
하나도 42
뛰어 42
감기에 42
희망@@ 42
분의 42
나무는 42
긴장@@ 42
것인지를 42
영국 42
나타냈다. 42
증가@@ 42
시키는 42
발표@@ 42
관해 42
사이의 42
,000@@ 42
맞추@@ 41
성은 41
부족하다. 41
아라. 41
회답을 41
감소@@ 41
관을 41
함부로 41
우유를 41
두고 41
날아@@ 41
취소@@ 41
취했다. 41
의지@@ 41
이름@@ 41
깔@@ 41
열쇠를 41
몰래 41
억지로 41
얼마@@ 41
잊지 41
뒤에서 41
함이 41
의하면 41
n@@ 41
불어 41
관은 41
당의 41
힘이 41
터가 41
어째서 41
놀라 41
소 41
되기 41
생겼다. 41
이어서 41
전투@@ 41
사이@@ 41
경험이 41
가져다 41
움을 41
라서 41
음식은 41
어젯밤에 41
국가의 41
얻은 41
우리들 41
귀하의 41
아니라, 41
...일 41
사에게 40
거짓@@ 40
수업을 40
시키@@ 40
학교를 40
낡은 40
원이다. 40
바람@@ 40
유감@@ 40
나보다 40
던졌다. 40
옛 40
웃었다. 40
학생@@ 40
종이 40
으로@@ 40
영어@@ 40
뿌@@ 40
P@@ 40
" 40
농담@@ 40
프랑스@@ 40
승리를 40
거절했다. 40
내내 40
충분@@ 40
뉴@@ 40
M@@ 40
음은 40
의가 40
케이@@ 40
복을 40
으려 40
환자는 40
맥@@ 40
년을 40
물로 40
비행기를 40
타는 40
이의 40
거친 40
통을 40
들로 40
변화@@ 40
벌 40
준비가 40
짙은 40
계는 40
나라는 40
트가 40
귀를 40
주시기를 40
고자 40
뜨렸다. 40
계가 40
회의는 40
동료@@ 40
열었다. 40
움@@ 40
마시고 40
간에 40
멈추@@ 40
석유@@ 40
의견이 40
정확히 40
정신이 40
시도@@ 40
길에 40
남아 40
청소@@ 40
진심으로 40
%@@ 40
있고 40
경영@@ 40
처리할 40
못하고 40
상에서 40
하자 40
없었@@ 40
일단 40
일도 40
들어가@@ 39
수로 39
인생@@ 39
쫓@@ 39
명령을 39
급 39
계를 39
둘 39
구나. 39
선수@@ 39
군중@@ 39
안개가 39
식이 39
문장을 39
때가 39
쥐@@ 39
음으로 39
오고 39
짓@@ 39
써 39
료 39
마음 39
목을 39
D@@ 39
나라의 39
조용@@ 39
아이에게 39
언급@@ 39
내려갔다. 39
말도 39
돈 39
겁@@ 39
누구도 39
딸@@ 39
옷이 39
마리가 39
구입@@ 39
선물을 39
위가 39
팀이 39
첫 39
금은 39
다음주에 39
옆에 39
희망이 39
사과@@ 39
금이 39
결과를 39
존재@@ 39
기분이 39
파는 39
몰랐다. 39
자고 39
이름이 39
떠날 39
우리들을 39
임무를 39
18@@ 39
했지만 39
물의 39
국의 39
문의@@ 39
학생들은 39
제출@@ 39
끄@@ 38
논쟁@@ 38
밟@@ 38
사고를 38
돌아오@@ 38
무례@@ 38
죽을 38
림을 38
연 38
심한 38
재를 38
눈에 38
지기 38
기어@@ 38
웠@@ 38
냈@@ 38
질렀다. 38
평가@@ 38
해, 38
외투를 38
누군가의 38
길로 38
쌓@@ 38
형 38
빵@@ 38
몸@@ 38
구가 38
공연@@ 38
초과@@ 38
드 38
받게 38
수출@@ 38
그것@@ 38
지금@@ 38
(@@ 38
료@@ 38
세계@@ 38
상술한 38
보기 38
비행기가 38
곡을 38
해주@@ 38
밖에서 38
렁@@ 38
공포@@ 38
알았@@ 38
회의@@ 38
주로 38
각각 38
재산을 38
실험@@ 38
어머니가 38
가정@@ 38
속 38
경쟁@@ 38
충돌@@ 38
싫어@@ 38
형을 38
상점은 38
의견은 38
흥미가 38
만날 38
서명@@ 38
한지 38
중국 38
의자에 38
회에서 38
살아@@ 38
잊었다. 38
대략 38
10일 38
뽑@@ 37
깎@@ 37
복용@@ 37
법을 37
환영@@ 37
온통 37
고양이가 37
괜찮@@ 37
누군가를 37
계약을 37
사라졌다. 37
긴다. 37
발언@@ 37
얼마입니까? 37
끝났다. 37
새를 37
억제@@ 37
물어@@ 37
우체@@ 37
약은 37
신중@@ 37
측에 37
필요 37
전을 37
사진을 37
서가 37
탁자 37
업은 37
미안@@ 37
뻗@@ 37
통 37
방향을 37
헤@@ 37
겨졌다. 37
하 37
소가 37
려는 37
당시 37
시작할 37
실은 37
안정@@ 37
스가 37
쪽에서 37
자들이 37
대화@@ 37
하루@@ 37
헌@@ 37
관이 37
기에서 37
장했다. 37
일찍이 37
00@@ 37
합격@@ 37
유명한 37
남자아이는 37
의는 37
적응@@ 37
말한다. 37
사실은 37
인으로 37
표시했다. 37
못하는 37
개월 37
아래 37
위한 37
사용할 37
조건을 37
으로, 37
정확하게 36
강요@@ 36
반을 36
울렸다. 36
여기저기 36
단을 36
욕을 36
춤을 36
젖@@ 36
듯 36
어진다. 36
톤@@ 36
탔다. 36
지요? 36
혀@@ 36
르는 36
쾌@@ 36
뒷@@ 36
한데 36
감옥에 36
포함@@ 36
폭풍우가 36
어떠@@ 36
라도 36
먹지 36
대신 36
기계를 36
불평@@ 36
식사 36
시계는 36
유일한 36
출 36
이야기했다. 36
황급히 36
런던에 36
시의 36
면에 36
선거@@ 36
띠@@ 36
짝@@ 36
하지는 36
도로는 36
연기가 36
정신@@ 36
출판@@ 36
시킨다. 36
전보로 36
주겠다. 36
관하여 36
숲@@ 36
가게 36
당신@@ 36
문제@@ 36
회 36
났을 36
기계@@ 36
자기가 36
게도 36
연습@@ 36
수영@@ 36
11@@ 36
졸업@@ 36
병원에 36
업무를 36
학 36
선생은 36
일반적으로 36
천진@@ 36
완성할 36
로, 36
위험을 35
실수를 35
례@@ 35
부합@@ 35
정도@@ 35
꽃이 35
모를 35
칼@@ 35
그녀@@ 35
로를 35
풍이 35
떨어@@ 35
드러@@ 35
쓸@@ 35
흘러@@ 35
쇠@@ 35
60@@ 35
수했다. 35
침대 35
아프다. 35
이해하지 35
농촌@@ 35
푸@@ 35
묘@@ 35
칭찬@@ 35
전문@@ 35
부르@@ 35
시험 35
6시에 35
채를 35
신발@@ 35
얼굴@@ 35
땅@@ 35
른@@ 35
벽을 35
다가@@ 35
내릴 35
임 35
잘못@@ 35
습니@@ 35
길이 35
영광@@ 35
항해@@ 35
위 35
종사@@ 35
확정@@ 35
달려@@ 35
/@@ 35
깨끗하게 35
적다. 35
쌍@@ 35
아졌다. 35
짐@@ 35
객@@ 35
국가는 35
도망갔다. 35
관리@@ 35
그리@@ 35
맑@@ 35
효@@ 35
습관@@ 35
무역@@ 35
대처@@ 35
이길 35
무리의 35
대답했다. 35
끈@@ 35
부쳐@@ 35
소개@@ 35
유럽@@ 35
살고 35
고맙겠습니다. 35
당신측에 35
력 35
상품은 35
여부를 35
설득@@ 35
준@@ 35
자료를 35
빛이 35
일치@@ 35
끌었다. 35
파운드의 35
소설은 35
소설을 35
관심을 35
아버지의 35
판매 35
월 35
환영을 35
주어야 35
안배@@ 35
이번@@ 35
일과 35
했으나, 35
동봉합니다. 35
방면에 35
않는다면, 35
믿습니다. 35
주십시요. 35
세게 34
터 34
부끄러@@ 34
와라. 34
뚫고 34
구름이 34
멸@@ 34
몹시 34
키가 34
다리가 34
신발을 34
공이 34
그렇@@ 34
붙였다. 34
앓@@ 34
40@@ 34
께서 34
상처를 34
마음은 34
낭@@ 34
실에 34
칭@@ 34
연락@@ 34
남겨 34
창을 34
클@@ 34
던@@ 34
무너@@ 34
원래의 34
말해라. 34
서류를 34
가까이 34
양보@@ 34
파괴@@ 34
스럽@@ 34
위는 34
강한 34
택@@ 34
령@@ 34
마구 34
강을 34
인에게 34
부담@@ 34
괴@@ 34
경은 34
행동이 34
노래@@ 34
%를 34
세는 34
력으로 34
주실 34
세계 34
달이 34
가라고 34
10월 34
움직이지 34
잡고 34
구멍을 34
조를 34
있고, 34
에게서 34
무시@@ 34
아기는 34
본래 34
예약@@ 34
생각은 34
비난@@ 34
었습니까? 34
은행@@ 34
마음대로 34
파티에 34
주소를 34
인쇄@@ 34
소리는 34
사고는 34
느낄 34
사람들 34
의견에 34
사무@@ 34
걸어갔다. 34
방법으로 34
관심이 34
시합을 34
하였습니다. 34
며, 34
말아라! 33
감격@@ 33
봄@@ 33
불러@@ 33
나온다. 33
불렀다. 33
절대 33
눈물이 33
열이 33
됐@@ 33
끓@@ 33
표합니다. 33
력에 33
죄를 33
의사@@ 33
체를 33
숨을 33
빠져 33
닭@@ 33
내며 33
옥@@ 33
<@@ 33
심으로 33
잃어버린 33
스로 33
플@@ 33
서에 33
남겨@@ 33
뛰어들었다. 33
쓰러@@ 33
상황은 33
어냈다. 33
말고, 33
어머니의 33
물이다. 33
가능성이 33
놈@@ 33
출발할 33
계 33
전진@@ 33
야기@@ 33
마루@@ 33
대신해서 33
않기 33
어버@@ 33
라이@@ 33
스타@@ 33
안전하게 33
증명@@ 33
튼@@ 33
화물은 33
혹@@ 33
참고@@ 33
밤@@ 33
만난 33
있어@@ 33
나라@@ 33
의외의 33
쪽의 33
구조@@ 33
연극@@ 33
싼 33
두려@@ 33
걸렸다. 33
과거의 33
시내@@ 33
신이 33
썼@@ 33
고통을 33
근거@@ 33
f@@ 33
돌렸다. 33
않다고 33
생각에 33
건의@@ 33
젊@@ 33
의미@@ 33
결심했다. 33
자동@@ 33
성에 33
비행기 33
업무 33
이유@@ 33
아들이 33
심각한 33
않기를 33
대통령은 33
14@@ 33
년간 33
보이@@ 33
해! 32
해고@@ 32
도둑@@ 32
의사를 32
까요? 32
측 32
이다! 32
떨어져 32
덩@@ 32
on@@ 32
으세요. 32
발이 32
일했다. 32
다섯 32
뛰@@ 32
부른다. 32
웅@@ 32
값을 32
크 32
훔@@ 32
덕@@ 32
기쁩니다. 32
부딪쳤다. 32
빈 32
조 32
O@@ 32
대학 32
게으@@ 32
행 32
보니 32
소녀@@ 32
땅 32
버리@@ 32
타이@@ 32
삶@@ 32
세워@@ 32
자들을 32
출근@@ 32
거리에서 32
읽었다. 32
조각@@ 32
펜@@ 32
결과가 32
가로 32
도, 32
발생할 32
로운 32
기름@@ 32
성한 32
상으로 32
먼지가 32
승객@@ 32
닿@@ 32
름을 32
가의 32
효과가 32
바쁘다. 32
적합하지 32
론을 32
바닥에 32
으라고 32
고무@@ 32
로마@@ 32
봐야 32
되어야 32
식은 32
가이다. 32
호수@@ 32
일어났다. 32
걸어서 32
상승@@ 32
F@@ 32
아버지@@ 32
가난@@ 32
명령@@ 32
사건은 32
조직@@ 32
산이 32
공장은 32
근로@@ 32
원했다. 32
용기를 32
침대에 32
그림@@ 32
힘든 32
색의 32
역에 32
받아들이@@ 32
희망을 32
달러@@ 32
싶은 32
맡았다. 32
런던@@ 32
공업@@ 32
아래와 32
아기를 32
못하다. 32
학교@@ 32
도왔다. 32
은행에 32
작을 32
축구 32
사고 32
부모님@@ 32
빼앗@@ 32
동의했다. 32
강연@@ 32
볼@@ 32
위원회의 32
가입@@ 32
오전 32
위대한 32
구했다. 32
진상을 32
책에 32
뛰어난 32
지금까지 32
나온 32
태도는 32
같았다. 32
사진@@ 32
바꿀 32
여동생@@ 32
된다고 32
셔츠를 32
느 32
휴가 32
커미션을 32
없기 32
상품 32
정부의 32
처음 32
실제@@ 32
하였는데, 32
히지 31
기다려@@ 31
지구는 31
아파@@ 31
국왕@@ 31
색을 31
꽃을 31
쏘@@ 31
오기 31
... 31
쪽을 31
건 31
친절@@ 31
혁@@ 31
시계가 31
님@@ 31
농민@@ 31
끊었다. 31
인이다. 31
말하고 31
운다. 31
힌 31
무를 31
회답@@ 31
기도 31
밀어 31
원에 31
판 31
켜 31
벼@@ 31
깃@@ 31
동생@@ 31
색으로 31
집어 31
찢@@ 31
싶어한다. 31
혁명@@ 31
비교@@ 31
회피@@ 31
들지 31
포기@@ 31
날짜를 31
들어간다. 31
진흙@@ 31
아래에서 31
어떻습니까? 31
문의 31
돌을 31
자에 31
신호@@ 31
반대하는 31
찬성@@ 31
비용은 31
거리는 31
아버지가 31
연극은 31
모는 31
는가? 31
버스를 31
후에는 31
작업@@ 31
학생들이 31
락 31
지휘@@ 31
래 31
끌고 31
관에 31
도시 31
친구에게 31
고려해 31
울타@@ 31
만들어 31
뻗어 31
활동@@ 31
떠올랐다. 31
뉴욕@@ 31
기와 31
눈은 31
남편이 31
특히 31
곳의 31
거나 31
인사를 31
선적 31
가까운 31
작년에 31
가격표를 31
알렸다. 31
씨 31
하겠다고 31
너로 31
부분이 31
모가 31
으로는 31
촉@@ 31
왔을 31
텔레비전@@ 31
견본@@ 31
상황@@ 31
이니? 31
잃게 31
%의 31
귀사에 31
하려는 31
지역의 31
이후로 31
선생@@ 31
이용해서 31
들어서 31
당겨@@ 30
아내@@ 30
경을 30
입 30
장난@@ 30
크를 30
출발했다. 30
석을 30
L@@ 30
무서@@ 30
워한다. 30
세우@@ 30
구부@@ 30
오르@@ 30
이것을 30
흘러 30
실패했다. 30
보고를 30
음악을 30
여름@@ 30
종을 30
삐@@ 30
눈으로 30
수록 30
보아라. 30
하시기를 30
벌을 30
가장@@ 30
타자@@ 30
석탄@@ 30
별로 30
불러 30
폴@@ 30
돌아갈 30
가게@@ 30
대학@@ 30
위험@@ 30
련@@ 30
따뜻한 30
금지@@ 30
판단@@ 30
전시@@ 30
조치를 30
에까지 30
생각하고 30
척@@ 30
출석@@ 30
긁@@ 30
마을은 30
국이 30
했었@@ 30
침을 30
소에 30
무례한 30
품이 30
들였다. 30
제일 30
수할 30
동물@@ 30
새는 30
짧은 30
날씨@@ 30
정할 30
스미스@@ 30
or@@ 30
위원회는 30
트의 30
태양@@ 30
저축@@ 30
류가 30
장식@@ 30
달렸다. 30
가격에 30
건강이 30
거래@@ 30
차로 30
나가지 30
군대는 30
케@@ 30
끝냈다. 30
경찰에게 30
국은 30
적당@@ 30
면이 30
멀리 30
당은 30
경에 30
아들은 30
겁니까? 30
방법은 30
너희들은 30
생활에 30
대학에 30
기만 30
해주세요. 30
Mary는 30
구름@@ 30
달에 30
달려 30
마셨다. 30
달러의 30
파운드 30
행위는 30
과거에 30
E@@ 30
탄 30
점심을 30
확신한다. 30
강조@@ 30
경제@@ 30
인해서 30
지키@@ 29
펴@@ 29
지마! 29
살인@@ 29
거짓말을 29
술에 29
색깔@@ 29
회사를 29
정보를 29
다니@@ 29
슨@@ 29
가! 29
데이@@ 29
부친@@ 29
개선@@ 29
설계@@ 29
상자 29
회가 29
겹@@ 29
최선을 29
삼가 29
아래에 29
기지 29
새가 29
살이 29
멍@@ 29
걷@@ 29
가지를 29
율을 29
햇빛이 29
누군가 29
생 29
빌려@@ 29
빌려 29
간을 29
그만 29
항공@@ 29
적합@@ 29
신문은 29
강연을 29
되어서 29
심 29
트럭@@ 29
발행@@ 29
손님@@ 29
경 29
걸려 29
주저@@ 29
자랑@@ 29
저지@@ 29
다니 29
참가하지 29
롭@@ 29
비평@@ 29
시켜@@ 29
략@@ 29
발생했다. 29
사고로 29
마일 29
많지 29
병 29
시했다. 29
v@@ 29
품의 29
참석@@ 29
국 29
쓰러졌다. 29
불편@@ 29
낭비@@ 29
범인을 29
책의 29
덜@@ 29
인민@@ 29
셔서 29
사용하는 29
G@@ 29
바다@@ 29
인상을 29
크는 29
나가서 29
잤다. 29
기뻤다. 29
하신 29
남았다. 29
둘러@@ 29
견지@@ 29
몇@@ 29
모습을 29
전쟁@@ 29
못했@@ 29
생각이다. 29
부유@@ 29
우수한 29
저에게 29
이사@@ 29
21@@ 29
병으로 29
되었습니다. 29
탈 29
얼마의 29
물품을 29
부탁@@ 29
동을 29
7월 29
속을 29
살았다. 29
업무@@ 29
모습@@ 29
정치 29
북경@@ 29
격려@@ 29
잔을 29
어깨를 29
부모@@ 29
데려다 29
언어@@ 29
않는다고 29
여야 29
량 29
당신측@@ 29
기간 29
할인을 29
는, 29
인데, 29
땅을 28
석 28
피우@@ 28
두려워@@ 28
보충@@ 28
반짝@@ 28
승리@@ 28
해라! 28
답을 28
강 28
빚을 28
결산@@ 28
전화 28
옳@@ 28
움이 28
높다. 28
아울러 28
말하자면 28
정부가 28
떨어뜨렸다. 28
갈망한다. 28
일어@@ 28
피가 28
난을 28
규칙을 28
않습니다. 28
ur@@ 28
바짝 28
여기는 28
만들@@ 28
공기를 28
흰@@ 28
시켜 28
전해 28
편지@@ 28
아래의 28
통치@@ 28
감이 28
몽@@ 28
놀라@@ 28
통제@@ 28
접근@@ 28
체의 28
개의치 28
찬성하지 28
이유를 28
면을 28
시골@@ 28
방해@@ 28
석은 28
급하게 28
되었다고 28
es@@ 28
나간다. 28
됐다. 28
어, 28
따뜻@@ 28
전기@@ 28
이라 28
해냈다. 28
동의를 28
도서@@ 28
작가는 28
품에 28
겠습니까? 28
화학@@ 28
음식이 28
손이 28
그녀로 28
유쾌하게 28
료는 28
즐거운 28
함에 28
첫@@ 28
간절히 28
>@@ 28
활동을 28
별 28
되었을 28
16@@ 28
회사@@ 28
침대에서 28
뜻밖의 28
있느냐? 28
기름을 28
단어는 28
여자아이는 28
화나게 28
소리에 28
다해 28
책임이 28
흔@@ 28
내야 28
다니, 28
있는지를 28
류 28
하는지를 28
오라고 28
갑시다. 28
있으니, 28
둔@@ 28
발송@@ 28
마일을 28
머리는 28
훈련을 28
충고@@ 28
롭게 28
세탁@@ 28
뿐@@ 28
달리@@ 28
너희들의 28
그들과 28
말했@@ 28
학교는 28
제는 28
실제 28
합작@@ 28
회사 28
어서, 28
불구하고 28
않아서, 28
일찌기 28
일으키@@ 27
불행@@ 27
께 27
버스가 27
엉@@ 27
간호@@ 27
릴@@ 27
치게 27
봐라. 27
맹@@ 27
풀을 27
섭@@ 27
깊@@ 27
로가 27
빠르다. 27
수영을 27
직무를 27
그만@@ 27
신다. 27
산에 27
잡아@@ 27
하늘에 27
상대@@ 27
중요하다. 27
달아@@ 27
찾았@@ 27
됩니다. 27
채 27
케이크를 27
배치@@ 27
썩@@ 27
보게 27
공 27
하신다. 27
층@@ 27
계급@@ 27
부딪혔다. 27
말해 27
이익을 27
이리저리 27
관의 27
온종일 27
리라고 27
자극@@ 27
것인@@ 27
채택@@ 27
질주@@ 27
나타낸다. 27
요리@@ 27
익숙@@ 27
문에서 27
곳은 27
터는 27
가격 27
대다수의 27
W@@ 27
위험한 27
얘@@ 27
혀서 27
첫번째 27
편 27
냄@@ 27
아름다@@ 27
부분@@ 27
사건을 27
이와 27
죽였다. 27
손상@@ 27
심은 27
아이들의 27
꺾@@ 27
량의 27
균@@ 27
두드@@ 27
막혔다. 27
늦었@@ 27
오기를 27
경찰측은 27
기다렸다. 27
커피@@ 27
과는 27
팔 27
하나는 27
예를 27
모르@@ 27
동의한다. 27
요 27
이겼다. 27
맞았다. 27
이름은 27
올려 27
으러 27
생각해 27
등 27
빠져@@ 27
커피를 27
정도 27
언제@@ 27
농담을 27
하든지 27
e 27
여왕@@ 27
단어@@ 27
암석@@ 27
모 27
아무@@ 27
참가했다. 27
손실을 27
인사@@ 27
능력을 27
업에 27
캐@@ 27
이곳에 27
소년@@ 27
표는 27
위치를 27
생기@@ 27
행할 27
싶었다. 27
방식으로 27
습관이 27
이내에 27
우리측 27
설 27
나쁘@@ 27
도둑은 27
시끄러운 27
정부@@ 27
부인은 27
진정한 27
이후에 27
느끼게 27
현대@@ 27
곤@@ 26
전쟁이 26
괴롭@@ 26
경솔@@ 26
그러@@ 26
피를 26
정부를 26
높이 26
소매@@ 26
주가 26
뚜렷@@ 26
왕 26
찬 26
아, 26
춤@@ 26
극복@@ 26
프를 26
거리가 26
셨@@ 26
기다@@ 26
헛@@ 26
세에 26
증이 26
맹렬하게 26
70@@ 26
감옥@@ 26
어두워@@ 26
리기 26
표에 26
아버@@ 26
총명@@ 26
연기를 26
만하다. 26
꽤 26
"는 26
기이다. 26
솔@@ 26
지워@@ 26
달러 26
시장에 26
청중@@ 26
돼@@ 26
사라@@ 26
죄로 26
제한@@ 26
추천@@ 26
매월 26
갈라@@ 26
동시에 26
대고 26
통과했다. 26
사건이 26
정거@@ 26
권리를 26
아들에게 26
즐@@ 26
비집고 26
에서도 26
문으로 26
함은 26
류는 26
행을 26
넓@@ 26
소식@@ 26
받아들였다. 26
모르는 26
산은 26
말로 26
J@@ 26
물건 26
쉽지 26
보여@@ 26
근로자들은 26
업이 26
공장@@ 26
버스는 26
증가했다. 26
친구이다. 26
건너@@ 26
켰다. 26
식물은 26
받아서 26
없어 26
명한 26
간단한 26
회의에서 26
대접@@ 26
기차@@ 26
맞는다. 26
하루종일 26
공부를 26
수요@@ 26
액은 26
월급@@ 26
소에서 26
각을 26
있음을 26
냄새가 26
동지@@ 26
부인이 26
제의를 26
젊은@@ 26
점에서 26
이어@@ 26
차례의 26
늘어@@ 26
말의 26
같지 26
겉@@ 26
대부분 26
가까스로 26
흔들었다. 26
붉은 26
넘어졌다. 26
피했다. 26
부에 26
럼@@ 26
에게로 26
방법@@ 26
현금으로 26
운동을 26
사전을 26
읽을 26
통상 26
자동차의 26
통지해 26
내다. 26
찾지 26
전쟁을 26
액을 26
마디 26
부상@@ 26
있을@@ 26
배에 26
나가 26
깡@@ 26
손가락을 26
자격이 26
뛰었다. 26
바라보았다. 26
인한 26
태도를 26
했니? 26
바쁘게 26
다녔다. 26
남겼다. 26
아내는 26
방식을 26
안이 26
생각하는 26
주기를 26
이야기할 26
에너@@ 26
선수는 26
므로 26
% 26
갔을 26
못하였다. 26
방면에서 26
경기에서 26
소유@@ 25
어서는 25
쏟아@@ 25
가득하다. 25
날에 25
하느님@@ 25
질문을 25
세요! 25
부끄@@ 25
틀렸다. 25
아들을 25
낳@@ 25
일어나@@ 25
버리고 25
붐@@ 25
계절@@ 25
오. 25
나무에 25
반에서 25
안부를 25
돌았다. 25
점 25
야! 25
오를 25
피우는 25
를@@ 25
목이 25
주의해라. 25
왼@@ 25
th@@ 25
가까@@ 25
교육을 25
y는 25
인들은 25
이론@@ 25
김@@ 25
리다. 25
모양으로 25
소로 25
미루@@ 25
건네 25
마시는 25
컵@@ 25
번역@@ 25
의자를 25
평화@@ 25
순조롭게 25
분명@@ 25
빙@@ 25
왔다갔다@@ 25
머지않아 25
쉬지 25
괴로@@ 25
동의하지 25
보장@@ 25
다닌다. 25
사직@@ 25
한가@@ 25
여름에 25
사람들로 25
신의 25
하니, 25
대단@@ 25
조심해라. 25
뚫@@ 25
변화가 25
팀을 25
써야 25
역 25
식사@@ 25
류의 25
루 25
할만한 25
런던에서 25
산의 25
손님을 25
라디오를 25
밝은 25
저의 25
코트를 25
껏 25
d 25
습관을 25
이전의 25
혼란@@ 25
잡을 25
가족@@ 25
넣어 25
푹 25
군 25
서류@@ 25
핵@@ 25
사용한다. 25
농작@@ 25
되도록 25
경제 25
서둘러 25
가버렸다. 25
혼자서 25
장미@@ 25
체는 25
반대한다. 25
커피 25
않고, 25
운명@@ 25
한차례 25
봤다. 25
하기가 25
여자는 25
거두었다. 25
추운 25
역사@@ 25
경기를 25
잡아 25
있겠습니까? 25
법률을 25
않습니까? 25
여기 25
권리가 25
그렇지? 25
빠진 25
초대@@ 25
다.@@ 25
부쳐 25
여있다. 25
지속@@ 25
호텔@@ 25
위치@@ 25
이기@@ 25
원인을 25
사병들은 25
"라고 25
열렬한 25
틈@@ 25
조차 25
얼굴은 25
편안@@ 25
위원@@ 25
성공에 25
보려고 25
확신@@ 25
런던 25
달성@@ 25
이며 25
교역@@ 25
인과 25
선에서 25
다행히 25
존이 25
기간에 25
연설을 25
에서@@ 25
사람이라고 25
눈 25
그래서 25
마을 25
그들로 25
어제는 25
현재의 25
따라, 25
싶습니다. 25
동봉하니, 25
이후@@ 25
게다가 25
시합에서 25
매번 25
가라. 24
말하@@ 24
동정을 24
내기 24
집행@@ 24
꿈@@ 24
거를 24
오게 24
안내@@ 24
딱 24
롭다. 24
열어 24
80@@ 24
살이다. 24
두드렸다. 24
땀@@ 24
동정@@ 24
되었습니까? 24
어지@@ 24
어리@@ 24
어울린다. 24
양이 24
편지가 24
만났@@ 24
내리고 24
적에게 24
대충 24
하마터면 24
n 24
오른@@ 24
선에 24
ll@@ 24
환자를 24
잘라@@ 24
살을 24
꾸짖@@ 24
올려@@ 24
병에 24
사과를 24
덩어@@ 24
스러@@ 24
사업을 24
수정@@ 24
렬@@ 24
라면 24
중단@@ 24
자기@@ 24
단은 24
자라@@ 24
지연@@ 24
귀찮게 24
대신@@ 24
부대는 24
전에는 24
려면 24
전염@@ 24
침입@@ 24
전의 24
마리를 24
소용@@ 24
초를 24
실패를 24
침략@@ 24
해에 24
꽂@@ 24
쇼@@ 24
롱@@ 24
일주@@ 24
독한 24
곱@@ 24
비밀@@ 24
때로 24
파운드이다. 24
기록을 24
파견@@ 24
생을 24
바깥@@ 24
나뭇@@ 24
몰아 24
후에야 24
관중@@ 24
전체@@ 24
들어갈 24
생명을 24
중한 24
유혹@@ 24
웃음@@ 24
분에 24
번의 24
옆@@ 24
사고@@ 24
불리@@ 24
자리에 24
상태가 24
팀@@ 24
하거나 24
선생님의 24
고장이 24
대금을 24
어려움이 24
얻기 24
가라앉@@ 24
꺼냈다. 24
제공한다. 24
남자아이가 24
대통령이 24
후의 24
하늘을 24
넘었다. 24
확실한 24
여겨진다. 24
파이프@@ 24
미국의 24
어느@@ 24
적합하다. 24
편지로 24
진술@@ 24
목소리가 24
아버지를 24
친척@@ 24
서술@@ 24
목소리는 24
실행@@ 24
다리는 24
실로 24
그것에 24
강렬한 24
즐겁@@ 24
어울리지 24
추측@@ 24
연장@@ 24
여행 24
친구는 24
당하는 24
상의@@ 24
해낼 24
가질 24
하는@@ 24
맥주를 24
절약@@ 24
실에서 24
Smith@@ 24
식으로 24
버릴 24
다소 24
우편으로 24
통과할 24
주민@@ 24
경이 24
퇴직@@ 24
융@@ 24
휴가@@ 24
수집@@ 24
나오는 24
직위를 24
잊어버@@ 24
다해서 24
관찰@@ 24
청년@@ 24
동의할 24
전력을 24
표했다. 24
않기로 24
고정@@ 24
양을 24
주었@@ 24
요구한다. 24
파 24
목 24
권했다. 24
허리를 24
최근에 24
묶었다. 24
느끼@@ 24
신문에서 24
도착했을 24
떠나 24
끼어@@ 24
있던 24
고객@@ 24
한차례의 24
저희@@ 24
4월 24
편의 24
있으나, 24
경험을 24
신용장 24
없다면 24
진행할 24
상상할 24
너희들이 24
평평하게 23
멋@@ 23
공격을 23
만하게 23
빈둥@@ 23
견디@@ 23
어렵@@ 23
피아노를 23
화는 23
깊게 23
눈물을 23
동물이다. 23
열렸다. 23
뢰@@ 23
표가 23
저를 23
뱀@@ 23
껍@@ 23
신은 23
마 23
겼@@ 23
싶어 23
뚱뚱@@ 23
미를 23
좋다고 23
하늘이 23
춥@@ 23
중국어를 23
번에 23
동이 23
규정@@ 23
바늘@@ 23
I@@ 23
두어라. 23
빵을 23
페인트를 23
선생님을 23
컵을 23
영국의 23
주머니 23
층 23
합니@@ 23
합니다, 23
쪽 23
갖추@@ 23
여기서 23
8시에 23
종교@@ 23
정하게 23
설비를 23
연구소 23
활동에 23
된@@ 23
말씀@@ 23
판이 23
보내서 23
쉽@@ 23
노래 23
지어 23
수이다. 23
해지@@ 23
미끄러져 23
창문 23
대화를 23
실현@@ 23
떨어뜨@@ 23
le@@ 23
견고@@ 23
후, 23
겨울에 23
친구와 23
인내@@ 23
예쁜 23
눌@@ 23
판사는 23
법률@@ 23
변한다. 23
하겠@@ 23
금액@@ 23
자본@@ 23
지역은 23
허락하지 23
케 23
민 23
공기가 23
랜@@ 23
회사에서 23
지에서 23
죄송합니다. 23
사귀@@ 23
그래도 23
회의가 23
정확하다. 23
더니 23
않겠다. 23
결국은 23
계에 23
갖추고 23
경계@@ 23
사람들과 23
율@@ 23
엽@@ 23
늙@@ 23
떨었다. 23
계곡@@ 23
리아@@ 23
우선 23
지식을 23
주의하지 23
떨어진 23
례를 23
남자는 23
상황에 23
잘못된 23
없어졌다. 23
미친 23
학생이 23
무엇이 23
가족은 23
허리@@ 23
대답하지 23
해석@@ 23
당에 23
위반@@ 23
버스 23
가기 23
돌아 23
보여 23
학교의 23
씨를 23
상해@@ 23
파티를 23
장애@@ 23
센@@ 23
없고, 23
권의 23
여름 23
피할 23
언제든지 23
서랍@@ 23
상할 23
처해 23
원치 23
싶어@@ 23
견해를 23
서비스@@ 23
지지를 23
격이 23
작년 23
없애@@ 23
머물@@ 23
주장@@ 23
대우를 23
경험@@ 23
결혼을 23
이야기하는 23
신선한 23
과장@@ 23
든@@ 23
쓰여@@ 23
변론@@ 23
록@@ 23
검사를 23
스미스 23
초 23
1992년 23
최고의 23
고에 23
형성@@ 23
생긴 23
형의 23
나서, 23
있으면, 23
구체적인 23
연합@@ 23
귀사는 23
었으나, 23
만났을 23
않는다면 23
토론을 23
연구를 23
허가@@ 23
처음에 23
다.; 23
방면의 23
측에게 23
없다면, 23
집어@@ 22
엎@@ 22
염려@@ 22
내다 22
고장@@ 22
인가! 22
발사@@ 22
반항@@ 22
규칙@@ 22
마셔@@ 22
말하기 22
헨@@ 22
림 22
맺@@ 22
르다. 22
책이다. 22
두를 22
압력을 22
겨서 22
순조@@ 22
가기로 22
환호@@ 22
목욕@@ 22
충분하다. 22
누구를 22
의에 22
그렸다. 22
느껴진다. 22
가기를 22
엄마가 22
한다 22
일요일에 22
분노를 22
시한다. 22
수에 22
밑@@ 22
보 22
배우고 22
수도@@ 22
혼합@@ 22
들이@@ 22
찔@@ 22
말려@@ 22
더러운 22
벽 22
트에 22
오래@@ 22
충만@@ 22
말해@@ 22
지켜@@ 22
원망@@ 22
Bob@@ 22
사전은 22
고민@@ 22
솟@@ 22
어요. 22
이야@@ 22
모두에게 22
권 22
교묘하게 22
ri@@ 22
일부 22
왼쪽으로 22
취미@@ 22
주에서 22
로에서 22
여지가 22
무도@@ 22
어젯밤 22
망가졌다. 22
부인을 22
애를 22
요? 22
가득@@ 22
예정@@ 22
가도록 22
훈련@@ 22
의사의 22
땅은 22
투표@@ 22
실패할 22
년의 22
톱@@ 22
학생 22
아가씨@@ 22
...을 22
각이 22
선으로 22
유쾌@@ 22
상자의 22
어두운 22
R@@ 22
추었다. 22
나요? 22
걱정이 22
제시한 22
절 22
금년 22
시원@@ 22
자라고 22
쉬었다. 22
강제로 22
교환@@ 22
면으로 22
바꾸어 22
건네@@ 22
으면, 22
구의 22
사이에서 22
수확@@ 22
일치하지 22
계획이다. 22
곰@@ 22
미스 22
손은 22
일치한다. 22
영어로 22
배로 22
협의를 22
강구@@ 22
콜@@ 22
랜드@@ 22
주인은 22
호전@@ 22
어머니@@ 22
일할 22
우리측에 22
나뭇잎이 22
놓은 22
버려@@ 22
의미를 22
돋@@ 22
국에 22
서의 22
하나님@@ 22
비의 22
조는 22
운전해 22
성공적으로 22
똑@@ 22
찾기 22
망이 22
소포를 22
미국에 22
문학@@ 22
지구@@ 22
텐@@ 22
부르는 22
상세히 22
일주일 22
사건@@ 22
랐다. 22
도시에 22
못해서 22
답장을 22
걸려서 22
특별한 22
되겠습니까? 22
위탁@@ 22
유감스럽@@ 22
예전에 22
자금을 22
학생은 22
램@@ 22
읽어@@ 22
않았을 22
제공하는 22
1월 22
중대한 22
이며, 22
유감입니다. 22
부쳤@@ 22
떠난 22
하라는 22
는데도 22
얻지 22
근거해서 22
관련 22
만족시킬 22
아기가 21
재촉@@ 21
벗어@@ 21
멎@@ 21
고향@@ 21
부수@@ 21
설을 21
텔레비전 21
바뀌었다. 21
루를 21
마련@@ 21
굳게 21
벽이 21
흘@@ 21
도망쳤다. 21
닫혔다. 21
안녕@@ 21
은행을 21
오세요. 21
공구를 21
교 21
도박@@ 21
보수@@ 21
층으로 21
금방 21
기에는 21
녹음@@ 21
기대어 21
식에 21
밥@@ 21
전복@@ 21
무릎@@ 21
뜻이 21
유 21
쿠@@ 21
소리쳤다. 21
잇@@ 21
li@@ 21
인자@@ 21
워라. 21
이익@@ 21
줘. 21
외로 21
종이를 21
그것들을 21
짧@@ 21
이라도 21
쪼@@ 21
초가 21
군요. 21
대중@@ 21
흑@@ 21
공은 21
지마. 21
움 21
걱정하지 21
우스@@ 21
아파서 21
적군의 21
삭@@ 21
유명하다. 21
치에 21
참관@@ 21
해방@@ 21
가려 21
엄마@@ 21
지났다. 21
때에는 21
종종 21
도시에서 21
분은 21
모험@@ 21
다리 21
새벽에 21
날아갔다. 21
프로그램@@ 21
주일 21
찔렀다. 21
)@@ 21
마루 21
전자@@ 21
늦었다. 21
능력이 21
소식에 21
모욕@@ 21
발동@@ 21
간은 21
결석@@ 21
상하게 21
가난한 21
당을 21
목은 21
도움에 21
십@@ 21
뿜@@ 21
학생들에게 21
고양@@ 21
주의해야 21
댔다. 21
밭@@ 21
기쁨@@ 21
사업@@ 21
보냈@@ 21
그곳에서 21
손에서 21
담이 21
후보@@ 21
햇빛@@ 21
따뜻하게 21
트럭이 21
화물 21
어렵게 21
자전거@@ 21
힘들게 21
금속@@ 21
어제@@ 21
진정으로 21
들여@@ 21
미에 21
보아하니 21
쉬운 21
조성@@ 21
am@@ 21
떨어져@@ 21
사무실 21
링@@ 21
들게 21
반의 21
통한다. 21
폐를 21
액이 21
오전에 21
잉@@ 21
아도 21
옹@@ 21
보고는 21
가득했다. 21
의심을 21
장차 21
나고 21
흉@@ 21
공장에서 21
일하고 21
복잡@@ 21
결과@@ 21
그날@@ 21
법관은 21
중요@@ 21
신경을 21
늙은 21
임금을 21
5시에 21
우산을 21
3일 21
불행한 21
정착@@ 21
너희 21
너희들 21
기쁘@@ 21
팀의 21
내려고 21
처리해야 21
고집@@ 21
가을@@ 21
달리기 21
반은 21
가야@@ 21
보에 21
조건@@ 21
영화 21
뻔했다. 21
시내에 21
끼어 21
목소리로 21
맹세했다. 21
확대@@ 21
결정하지 21
깨달았다. 21
학위를 21
지불해야 21
더듬@@ 21
둘은 21
입지 21
신호를 21
청했다. 21
주고 21
복사@@ 21
유머@@ 21
일에서 21
똑똑@@ 21
유격@@ 21
마지막으로 21
샀@@ 21
남편@@ 21
단에서 21
어머니를 21
항목@@ 21
주차@@ 21
져야 21
나라 21
곳 21
인지를 21
않아도 21
들어가는 21
조차도 21
숙제를 21
이번에 21
사무실에 21
시간의 21
우리로 21
일한 21
세기 21
통하여 21
혜@@ 21
등산@@ 21
요구하는 21
관련@@ 21
같습니다. 21
행동에 21
원들은 21
관해서 21
만약에 21
Mar@@ 21
작용을 21
것이고, 21
거대한 21
생각하면 21
하고있다. 21
패배@@ 20
침몰@@ 20
봄이 20
계란을 20
펑 20
안심@@ 20
복종@@ 20
명예를 20
뚜껑을 20
탑@@ 20
청산@@ 20
흡@@ 20
지경@@ 20
목적@@ 20
진정@@ 20
사방으로 20
웃음을 20
창조@@ 20
명성을 20
수색@@ 20
결혼했다. 20
오른쪽으로 20
젖었다. 20
탕은 20
직업을 20
거린다. 20
사이다. 20
말이다. 20
맥주 20
거야@@ 20
률@@ 20
기념@@ 20
복 20
천을 20
알을 20
체로 20
날카로운 20
락을 20
가방을 20
놓아라. 20
옷 20
저녁을 20
켓@@ 20
기다리게 20
손해를 20
군중들이 20
배반@@ 20
기진맥진@@ 20
승진@@ 20
쓸데없는 20
문제 20
표면@@ 20
먼@@ 20
먹은 20
호랑@@ 20
들어가지 20
럽게 20
뱃@@ 20
돌 20
들어가 20
제기했다. 20
아름답@@ 20
건조@@ 20
행렬@@ 20
셔츠@@ 20
때를 20
유효@@ 20
절을 20
좁은 20
빌딩@@ 20
놓여 20
곳이다. 20
값이 20
들이다. 20
렀@@ 20
쏟아져 20
나라를 20
널@@ 20
쌓여 20
속히 20
반에 20
상점@@ 20
여성@@ 20
인가? 20
지혜@@ 20
법은 20
1시간 20
언했다. 20
이혼@@ 20
판결@@ 20
단이 20
차지@@ 20
영향@@ 20
레 20
담 20
바쁘@@ 20
확장@@ 20
법률은 20
결과에 20
진짜 20
) 20
공장의 20
전개@@ 20
굳@@ 20
버렸@@ 20
념@@ 20
파티@@ 20
봅시다. 20
있을까요? 20
부분은 20
죄송@@ 20
해질 20
선적할 20
탕을 20
1000@@ 20
지역@@ 20
나가는 20
양해@@ 20
사태@@ 20
자랐다. 20
목록을 20
핑@@ 20
깜짝 20
어버렸다. 20
갈망@@ 20
손님이 20
짝 20
어리석은 20
이틀 20
제시간에 20
해주었다. 20
입구에 20
기차 20
목록@@ 20
자루@@ 20
언덕@@ 20
손실@@ 20
롭지 20
형제@@ 20
광경을 20
세계의 20
찾아냈다. 20
틀렸@@ 20
화되었다. 20
사랑하는 20
다치게 20
혔@@ 20
쉴 20
느껴@@ 20
구할 20
아침을 20
살해@@ 20
건의에 20
보험에 20
하든 20
심에 20
째 20
믿게 20
전쟁은 20
실험을 20
일체의 20
통지를 20
기한이 20
부근에 20
모임에 20
자기를 20
콩@@ 20
던져@@ 20
근 20
점심 20
영웅@@ 20
형편@@ 20
사건의 20
등의 20
나누었다. 20
드릴 20
임명@@ 20
할지를 20
생각할 20
건강 20
강연은 20
이윤을 20
바라보고 20
얻기를 20
투를 20
공장 20
피아노@@ 20
프랑스 20
로서 20
지불할 20
성과를 20
경치를 20
때마다 20
서비스를 20
결합@@ 20
출생@@ 20
했으나 20
작업을 20
듣는 20
해결할 20
운전을 20
하루에 20
외 20
대학에서 20
방면@@ 20
모르게 20
공장을 20
개월@@ 20
당할 20
톰은 20
표시한다. 20
하려면 20
기다릴 20
때부터 20
지적@@ 20
35@@ 20
드리겠습니다. 20
시장에서 20
동전을 20
향상@@ 20
있는데 20
찰 20
계약 20
교역을 20
엔진이 20
편리@@ 20
3월 20
동봉한 20
기업@@ 20
친구들이 20
공급할 20
발견하였다. 20
y 20
듣고, 20
부득불 20
해방 20
찾는 20
너희측이 20
마리는 20
보자마자 20
지불 20
주문한 20
량과 20
채용@@ 20
본사는 20
할인@@ 20
방해하지 19
오해@@ 19
랜드 19
거리지 19
먼지를 19
가구를 19
전화가 19
겨울@@ 19
테이블@@ 19
예의가 19
내어 19
단추를 19
고발@@ 19
춥다. 19
강물이 19
싸우@@ 19
이다 19
입후보@@ 19
포를 19
솔직하게 19
차례@@ 19
뭐@@ 19
삽@@ 19
경기가 19
박 19
아첨@@ 19
거리고 19
덮었다. 19
보살@@ 19
른다. 19
탱@@ 19
숫자를 19
멈춰@@ 19
이, 19
우울@@ 19
언을 19
물가가 19
며@@ 19
똑바로 19
미가 19
만들어@@ 19
훑어@@ 19
버리지 19
곁에 19
춘 19
슈@@ 19
물건들을 19
수입을 19
망을 19
결을 19
비용이 19
층에 19
판다. 19
초래@@ 19
심각@@ 19
법정은 19
가깝다. 19
선포@@ 19
보로 19
사소한 19
외투@@ 19
창 19
솟아@@ 19
귀에 19
소모@@ 19
장관은 19
재봉@@ 19
뜯@@ 19
증가하고 19
몰고 19
기둥@@ 19
주셔서 19
실업@@ 19
계란@@ 19
출항@@ 19
안고 19
인들이 19
권이 19
주문 19
소홀@@ 19
하던 19
진작@@ 19
나면 19
테니스 19
죽음을 19
손가락@@ 19
강의 19
st@@ 19
즉@@ 19
재료@@ 19
호텔에 19
적군은 19
포위@@ 19
궤@@ 19
겨울 19
흥미@@ 19
e는 19
행운@@ 19
판결을 19
공평@@ 19
엄격@@ 19
론은 19
협조@@ 19
피아노 19
월급을 19
심의 19
냄새를 19
면은 19
국왕은 19
벨@@ 19
읽어 19
듣기 19
놀고 19
어쨌든 19
색은 19
밀었다. 19
토론할 19
잡혔다. 19
기억한다. 19
몸은 19
상품이 19
사장은 19
요일@@ 19
호의에 19
경찰의 19
아가@@ 19
도덕@@ 19
불쌍한 19
증명할 19
가렸다. 19
퍼졌다. 19
대통령@@ 19
열거@@ 19
교차@@ 19
사이에는 19
돌아가는 19
가졌다. 19
약혼@@ 19
풀었다. 19
모퉁@@ 19
판매를 19
내렸@@ 19
모순@@ 19
N@@ 19
담배@@ 19
부채@@ 19
밭에 19
조작@@ 19
구성@@ 19
철저히 19
음악은 19
하룻@@ 19
능숙@@ 19
소년이 19
개인@@ 19
에만 19
틀림없이 19
을만한 19
가르쳐 19
무엇도 19
무게@@ 19
도우@@ 19
누구의 19
존경@@ 19
있는@@ 19
지탱@@ 19
칼을 19
모였다. 19
다리@@ 19
끝난 19
세계를 19
성탄절@@ 19
사회 19
사실이 19
날씨에 19
직을 19
당선@@ 19
0@@ 19
쫓았다. 19
테니스를 19
뒤적@@ 19
상태@@ 19
여지껏 19
션@@ 19
아내가 19
용서@@ 19
이전@@ 19
희망은 19
지극히 19
기간@@ 19
연히 19
거리의 19
금년에 19
똑같이 19
보답@@ 19
아들의 19
원고를 19
하자고 19
호텔에서 19
위험이 19
이야기하고 19
파업@@ 19
차라리 19
내의 19
전기 19
목표를 19
원과 19
의견@@ 19
만들 19
남편은 19
언니@@ 19
캠@@ 19
은행은 19
수준@@ 19
청해서 19
무 19
어진 19
급한 19
유용한 19
있어서는 19
모두를 19
내용@@ 19
했음을 19
인용@@ 19
임금@@ 19
시키기 19
요구한 19
주신@@ 19
000@@ 19
너희측의 19
했는데 19
입은 19
때문@@ 19
때에, 19
않지만, 19
있지만, 19
은데, 19
견본을 19
이일을 19
은, 19
면액 19
번호@@ 18
끌어 18
비웃@@ 18
슬퍼@@ 18
어리석@@ 18
자세한 18
범을 18
갑을 18
오로지 18
확실@@ 18
덧@@ 18
귀가 18
무더@@ 18
덥@@ 18
장사를 18
당기@@ 18
럽다. 18
옛날 18
고기는 18
지나간다. 18
활발@@ 18
어요? 18
놓지 18
명했다. 18
일어난다. 18
아름답다. 18
누웠다. 18
눕@@ 18
구름 18
들어라. 18
세요, 18
께@@ 18
읽고 18
락했다. 18
시기를 18
촛@@ 18
차에서 18
우 18
견본품을 18
감기를 18
붙어 18
son@@ 18
해진 18
8시 18
30분에 18
박한 18
석탄을 18
칼로 18
설탕을 18
말아@@ 18
의사 18
적게 18
워졌다. 18
쌌다. 18
계획의 18
타서 18
멍청@@ 18
갇@@ 18
손가락이 18
이유는 18
연필@@ 18
밝혀@@ 18
주위에 18
안경을 18
학습@@ 18
양의 18
로에 18
만의 18
시키지 18
코를 18
꼬리를 18
비준@@ 18
료가 18
효과를 18
항목을 18
바퀴@@ 18
거리면서 18
런@@ 18
사랑을 18
원에게 18
멈춰 18
도중에 18
폭풍@@ 18
계획 18
하에 18
벗어났다. 18
예정이다. 18
졌을 18
싹@@ 18
약탈@@ 18
격했다. 18
성이다. 18
품이다. 18
계의 18
달러이다. 18
주문에 18
엉망진창@@ 18
악한 18
났다는 18
법 18
포는 18
범인은 18
율이 18
수술@@ 18
아프리카@@ 18
보류@@ 18
수한다. 18
공산@@ 18
물리@@ 18
정상@@ 18
평화를 18
구멍@@ 18
움은 18
토끼@@ 18
충실@@ 18
찾는다. 18
짖@@ 18
달라@@ 18
깨어@@ 18
바다로 18
어둠@@ 18
너도 18
전부를 18
결혼 18
송 18
질병은 18
하여@@ 18
교통 18
정기@@ 18
연극을 18
싸움을 18
죽었@@ 18
햄릿@@ 18
달러에 18
투입@@ 18
쓰기 18
권력을 18
프 18
과를 18
관으로 18
범한 18
솔직히 18
노인이 18
말해서 18
뚫었다. 18
계단을 18
비슷한 18
눈에서 18
화해@@ 18
많아@@ 18
부근에서 18
촉진@@ 18
맨@@ 18
명확한 18
숨어 18
품고 18
물질@@ 18
불량@@ 18
갱@@ 18
겨져 18
300@@ 18
좋았다. 18
맞이@@ 18
3년 18
온몸이 18
기도했다. 18
리라는 18
전면@@ 18
이곳에서 18
태어@@ 18
신발은 18
직장을 18
잃은 18
불어를 18
떠나는 18
약한 18
나올 18
십시@@ 18
번호를 18
마를 18
반대 18
종일 18
념을 18
포도@@ 18
페인트@@ 18
압박@@ 18
앞을 18
떨어질 18
적이지 18
물품 18
인도 18
로의 18
보세요. 18
알려주세요. 18
붉@@ 18
속한다. 18
러서 18
첩@@ 18
인구가 18
시위@@ 18
포기했다. 18
될까요? 18
용기가 18
떨어진다. 18
쌍방이 18
선거에서 18
댐@@ 18
기름이 18
촌@@ 18
속였다. 18
일어나는 18
조심스럽게 18
파산@@ 18
상태를 18
다쳤다. 18
사람에 18
음악에 18
기뻐@@ 18
피로@@ 18
직면@@ 18
사는데 18
상업@@ 18
지도를 18
당하지 18
병의 18
스의 18
머리에 18
이든 18
밀고 18
미소를 18
않았기 18
록 18
향이 18
일생동안 18
증명했다. 18
사려고 18
실제로 18
망설@@ 18
와의 18
보았을 18
배웠다. 18
느낌을 18
점의 18
re@@ 18
않는다는 18
째@@ 18
후회@@ 18
보아야 18
팔았다. 18
주려고 18
존 18
단어를 18
장거리 18
만나는 18
극본@@ 18
당신측은 18
보내는 18
마을에 18
외투는 18
사전@@ 18
최근의 18
과의 18
완성해야 18
찾아서 18
때의 18
가져왔다. 18
F 18
대다수 18
가들은 18
험@@ 18
라디오@@ 18
알려드립니다. 18
el@@ 18
주위의 18
어두@@ 18
조사를 18
단의 18
ou@@ 18
건축물은 18
그때의 18
두었@@ 18
198@@ 18
있으며, 18
었지만, 18
노력하고 18
므로, 18
국제 18
않았는데, 18
적합한 18
양은 18
있었을 18
,000달러의 18
아! 17
썰@@ 17
질질 17
조수가 17
모집@@ 17
펑@@ 17
치기 17
번쩍@@ 17
겨울이 17
훌륭@@ 17
온갖 17
기계가 17
지출을 17
전쟁 17
피곤하다. 17
아. 17
가지는 17
파리를 17
늦추@@ 17
발했다. 17
감사의 17
90@@ 17
누구입니까? 17
원합니까? 17
성장@@ 17
뜰@@ 17
흠뻑 17
맛이 17
주셨다. 17
돕는다. 17
John@@ 17
신임@@ 17
알릴 17
지다. 17
무리@@ 17
폭로@@ 17
쌓였다. 17
화장@@ 17
비로 17
연소@@ 17
자리가 17
톰@@ 17
슬프@@ 17
날로 17
골라@@ 17
마루를 17
제대로 17
재로 17
재 17
체포@@ 17
접시를 17
뭉@@ 17
으시@@ 17
과일을 17
내려왔다. 17
배달@@ 17
보존@@ 17
왕왕 17
리에서 17
여겨@@ 17
제의@@ 17
누군가에게 17
생활의 17
얼굴 17
남을 17
얼음이 17
좋아졌다. 17
필요는 17
낚시@@ 17
당황@@ 17
지역을 17
바가 17
차렸다. 17
상호 17
레코@@ 17
운항@@ 17
바꿔 17
게걸스럽게 17
거 17
점으로 17
명령했다. 17
오르고 17
바닥@@ 17
셔@@ 17
의심의 17
마을@@ 17
지붕을 17
기한@@ 17
바랬다. 17
했었다. 17
우유가 17
끝낼 17
래? 17
태양을 17
TV@@ 17
원들이 17
고객을 17
동물은 17
내밀었다. 17
아기@@ 17
정지@@ 17
증거를 17
프랑스어를 17
맞아 17
착륙@@ 17
예의 17
남자아이를 17
중에는 17
해변@@ 17
쇠약@@ 17
용할 17
태어났다. 17
않니? 17
함유@@ 17
선의 17
성공하지 17
비위를 17
양도@@ 17
놓아야 17
기도@@ 17
탄다. 17
차가운 17
상자에 17
오염@@ 17
빗물이 17
한마디 17
분위기가 17
정기적으로 17
오후@@ 17
기계의 17
몰려@@ 17
심사@@ 17
지출@@ 17
예쁘다. 17
6시 17
죠@@ 17
중요하지 17
카드@@ 17
옷의 17
흔들어 17
아냈다. 17
전적으로 17
결심@@ 17
저항@@ 17
안개 17
할까 17
전은 17
그곳은 17
군은 17
독점@@ 17
여행객@@ 17
보시@@ 17
톤 17
간이 17
되길 17
준비하고 17
적당하지 17
돌진@@ 17
공부하고 17
신문에 17
우아@@ 17
구속@@ 17
연하게 17
필 17
탕 17
정부에 17
물에서 17
가려@@ 17
재능이 17
리라고는 17
자도 17
입니@@ 17
머리카락이 17
손해@@ 17
앞의 17
s 17
뿐 17
소와 17
꾼@@ 17
대량으로 17
9월 17
질의 17
별을 17
라디오 17
장부에 17
부인에게 17
물건의 17
펌@@ 17
끝내 17
무역 17
모양을 17
프로그램을 17
네, 17
죽음은 17
백만 17
않음을 17
만년@@ 17
인정했다. 17
사병@@ 17
편집@@ 17
유람@@ 17
승리할 17
담하게 17
검은 17
건의는 17
표정이 17
부주의@@ 17
연설은 17
온화@@ 17
반복해서 17
시합에 17
지낸다. 17
노동자@@ 17
간청했다. 17
장면을 17
주석@@ 17
투쟁@@ 17
테니@@ 17
풍을 17
용감하게 17
남자가 17
노력했다. 17
끝에 17
책상을 17
환경@@ 17
국가에 17
희생@@ 17
최후의 17
설명했다. 17
냐고 17
컴퓨@@ 17
초청을 17
지니@@ 17
산책을 17
생활은 17
좋아서 17
비서@@ 17
희망했다. 17
웨@@ 17
가족을 17
모델@@ 17
좋을 17
하나, 17
편지의 17
우주@@ 17
선생이 17
안전을 17
현대 17
주름@@ 17
에서부터 17
가도 17
똑똑히 17
없으면 17
칸@@ 17
Jack@@ 17
사실에 17
지역에서 17
도착하지 17
읽는 17
아무리 17
대응@@ 17
요청@@ 17
조건은 17
무가 17
않았으면 17
불가능한 17
옮겼다. 17
소음이 17
심장@@ 17
래의 17
적어도 17
다." 17
기준@@ 17
당하였다. 17
정하였다. 17
사실 17
완벽@@ 17
있으니 17
전람@@ 17
동지가 17
면에서 17
지불을 17
유지할 17
도착한 17
경기 17
기간은 17
얻게 17
고려할 17
최저@@ 17
사용한 17
된다면 17
가능성을 17
군중들은 17
한편으로는 17
걸을 17
외의 17
국제@@ 17
주어서 17
좋아하니? 17
미터@@ 17
오퍼@@ 17
대해서, 17
원인은 17
앞당겨 17
것이지, 17
방식은 17
되어서, 17
보고, 17
최신 17
었기 17
시간동안 17
손가@@ 17
환어@@ 17
나서야 17
랑 16
행위를 16
착취@@ 16
시합 16
달을 16
써라. 16
끊어졌다. 16
유용@@ 16
조가 16
정에서 16
리다 16
자유롭게 16
시간이다. 16
애석@@ 16
기회@@ 16
증거@@ 16
범람@@ 16
르며 16
아저@@ 16
춰@@ 16
소금을 16
시장 16
침착@@ 16
부치@@ 16
바퀴가 16
낙엽@@ 16
쥐를 16
그거 16
거짓말@@ 16
피우지 16
존스@@ 16
금으로 16
점이다. 16
체이다. 16
협의@@ 16
세이다. 16
기절@@ 16
뱀을 16
무겁@@ 16
고양이를 16
팽@@ 16
배고@@ 16
해. 16
공부한다. 16
어. 16
비평을 16
밤은 16
오, 16
정복@@ 16
담당@@ 16
죄악@@ 16
죽음에 16
례에 16
주어 16
도로의 16
높게 16
뒤 16
비틀@@ 16
끝을 16
호되게 16
젖은 16
띄@@ 16
손 16
통에 16
놓을 16
옷감은 16
붉은@@ 16
꼭대@@ 16
야구@@ 16
크리@@ 16
지하@@ 16
당이 16
보도@@ 16
폭풍우@@ 16
계약은 16
별도로 16
탓@@ 16
강하다. 16
피터는 16
다루@@ 16
넣지 16
봐. 16
않으@@ 16
불쾌@@ 16
보내지 16
렀다. 16
않는@@ 16
그녀에 16
도로가 16
밀한 16
상이다. 16
길이가 16
해안@@ 16
축 16
날렸다. 16
싸다. 16
일으킨다. 16
스러워 16
연못@@ 16
둘러싸@@ 16
g 16
느낌이 16
족 16
건넜다. 16
겪@@ 16
부하@@ 16
봄에 16
자리에서 16
재고@@ 16
예쁘게 16
목으로 16
대문을 16
Mary@@ 16
바랄 16
유익하다. 16
당국은 16
말고. 16
소비@@ 16
씨가 16
어둠 16
광고를 16
좋아했다. 16
의지해 16
레를 16
지구가 16
밤새 16
나? 16
낚@@ 16
색이다. 16
아무래도 16
금년@@ 16
목소리를 16
미끄러@@ 16
주유@@ 16
축하를 16
전달@@ 16
서비@@ 16
이루었다. 16
첨@@ 16
상태에 16
오렌@@ 16
우호적인 16
기뻐서 16
까, 16
상처@@ 16
따르@@ 16
프로@@ 16
축하합니다. 16
시민@@ 16
물고 16
엔진을 16
꺼져@@ 16
끔@@ 16
워야 16
있냐? 16
부식@@ 16
호기@@ 16
쥐가 16
한잔 16
요, 16
관련이 16
유쾌한 16
잎@@ 16
테이@@ 16
얼마를 16
국왕의 16
불가능하다. 16
발걸@@ 16
Y@@ 16
장군은 16
보관@@ 16
대학의 16
거니? 16
운전해서 16
며칠@@ 16
밥 16
사교@@ 16
지라도 16
분배@@ 16
강도@@ 16
얘기했다. 16
통이 16
거주@@ 16
대로@@ 16
경매@@ 16
컨@@ 16
공기 16
중얼@@ 16
1년 16
짜리 16
야영@@ 16
실패는 16
푼@@ 16
민첩@@ 16
메어리는 16
창백@@ 16
꿰@@ 16
불과하다. 16
조의 16
만져@@ 16
모살@@ 16
보이게 16
경기는 16
탐험@@ 16
상자는 16
유럽 16
이상하다. 16
맺었다. 16
천성적으로 16
가치@@ 16
희극@@ 16
사이가 16
삭제@@ 16
사치@@ 16
정의 16
단순@@ 16
성적은 16
하셨@@ 16
한쪽으로 16
랐@@ 16
턱@@ 16
좋게 16
실패한 16
왕래@@ 16
질문에 16
대책을 16
도와줄 16
계산을 16
분리@@ 16
고상@@ 16
늦은 16
발표했다. 16
런던을 16
풀어 16
써버렸다. 16
강력@@ 16
만드@@ 16
에다 16
입는 16
동안@@ 16
의사에게 16
샘플@@ 16
항을 16
말씀해 16
제안을 16
대금@@ 16
사상을 16
작년@@ 16
살펴@@ 16
있지만 16
일본 16
날짜@@ 16
심었다. 16
9시에 16
지난@@ 16
무릅쓰고 16
괜찮다. 16
둥 16
지체@@ 16
5일 16
증기가 16
꼭@@ 16
선택할 16
반복@@ 16
슬픔을 16
맸다. 16
가리@@ 16
세부@@ 16
안았다. 16
집회에 16
훈@@ 16
들보다 16
구별@@ 16
감당할 16
대중의 16
참여@@ 16
시인@@ 16
가정 16
자신에게 16
사지 16
이론은 16
생활한다. 16
크고 16
일으@@ 16
늦게@@ 16
다.. 16
친구의 16
세상에 16
부양@@ 16
그리워@@ 16
카운@@ 16
입찰@@ 16
호흡@@ 16
시하고 16
파고 16
마지막에 16
나중에 16
가했다. 16
좋아질 16
뜻밖에도 16
꼴@@ 16
거두@@ 16
선생님께 16
마리 16
천재@@ 16
붓@@ 16
었다고 16
넣고 16
맞추어 16
블@@ 16
반응이 16
돌아다니@@ 16
아이 16
행복한 16
대신하여 16
하자마자 16
움츠@@ 16
하나하나 16
대부분@@ 16
법에 16
평균@@ 16
불어@@ 16
가진 16
될@@ 16
지이다. 16
아팠다. 16
잃어버렸@@ 16
않다는 16
먹기 16
실행할 16
~@@ 16
뽑았다. 16
외국 16
리라 16
사에서 16
작 16
요구할 16
휴식@@ 16
과학 16
오래지 16
생활 16
유리한 16
미터 16
선수가 16
원칙@@ 16
등록@@ 16
리와 16
존과 16
운동은 16
그야말로 16
처음으로 16
적용@@ 16
실시@@ 16
데는 16
참의@@ 16
작품을 16
조건에 16
합 16
체육@@ 16
넣을 16
사고의 16
오퍼는 16
만들어진 16
150@@ 16
이상의 16
방문을 16
이나, 16
알기 16
대해, 16
받아주십시오. 16
"라는 16
이지만, 16
저희 16
보내준 16
조건으로 16
편지에서 16
동안의 16
참가하는 16
화물이 16
멈추지 16
최고 16
클럽의 16
없는지를 16
소녀는 16
트랙@@ 16
관광객@@ 16
것인데, 16
힐 16
번거로움을 16
주의력을 16
수시로 16
둔 16
었습니다. 16
환어음을 16
떠나기 16
에너지를 16
않았다면, 16
재산은 16
수속을 16
태도가 16
사항을 16
따라서, 16
었는데, 16
미래의 16
때문입니다. 16
인민공@@ 16
돛을 15
풍 15
손잡@@ 15
절망@@ 15
카드를 15
상의를 15
꺼졌다. 15
일까지 15
남쪽으로 15
빌어@@ 15
꺼져! 15
어둡@@ 15
마른 15
고기가 15
두꺼운 15
넣어라. 15
흐른다. 15
퀴@@ 15
탁자를 15
애써 15
채우@@ 15
끝이 15
막이 15
참 15
셈@@ 15
선택했다. 15
보고서를 15
진압@@ 15
7시 15
거리에 15
진짜@@ 15
불러일으켰다. 15
흩어졌다. 15
실수가 15
사랑한다. 15
내기를 15
의심이 15
뛰어나다. 15
횡@@ 15
렴@@ 15
여섯 15
수염을 15
아내를 15
울고 15
길다. 15
흘렀다. 15
나쁘다. 15
전기를 15
손목@@ 15
감사한다. 15
비참@@ 15
se@@ 15
바람 15
고맙@@ 15
화요일에 15
월요일에 15
말고@@ 15
캔@@ 15
죽 15
사기를 15
초에 15
분발@@ 15
돼지@@ 15
입장@@ 15
동물을 15
숭@@ 15
누르@@ 15
a는 15
현장에서 15
텔레비전을 15
바지를 15
조각을 15
잎을 15
발로 15
끈을 15
반으로 15
줘라. 15
오솔@@ 15
덮고 15
합격하지 15
본인은 15
승낙@@ 15
얻어@@ 15
중지@@ 15
흩@@ 15
시끄럽게 15
지껄@@ 15
마라, 15
카메라를 15
초조@@ 15
못하도록 15
음악 15
흔적을 15
조심해서 15
튀어@@ 15
흔들렸다. 15
부단히 15
더럽@@ 15
어찌 15
폭격@@ 15
대해서는 15
도에서 15
제멋대로 15
쓰게 15
판은 15
토를 15
코 15
자란다. 15
감고 15
달한다. 15
시내에서 15
격 15
철로를 15
둘러싸고 15
팽창@@ 15
나아@@ 15
렌@@ 15
전했다. 15
전진했다. 15
선박@@ 15
날의 15
기슭@@ 15
론 15
파리에 15
간단@@ 15
대답은 15
주시하고 15
구하는 15
스에 15
렸을 15
지구의 15
지진이 15
끝날 15
르 15
혀를 15
관대@@ 15
처벌을 15
강아@@ 15
발휘@@ 15
송장을 15
심리@@ 15
원에서 15
한번@@ 15
칙@@ 15
대륙@@ 15
향했다. 15
바람은 15
어떤@@ 15
종업@@ 15
동경@@ 15
왜@@ 15
사장@@ 15
때이다. 15
랄@@ 15
분열@@ 15
간섭@@ 15
필사적으로 15
약이 15
각자 15
수표 15
끊어@@ 15
흩어져 15
전이 15
받으@@ 15
고등@@ 15
출발한다. 15
어려움에 15
코끼@@ 15
어있다. 15
빨간 15
우가 15
옆으로 15
얼룩@@ 15
주신 15
직 15
7시에 15
랫@@ 15
오른다. 15
부두@@ 15
키스@@ 15
무척 15
캐나다@@ 15
반이 15
나무의 15
낮추@@ 15
심하다. 15
수업@@ 15
교회는 15
망쳤다. 15
도로에 15
곤란을 15
해는 15
해의 15
감상@@ 15
현장에 15
춘@@ 15
기부@@ 15
권은 15
소란을 15
도리가 15
송금@@ 15
즐거움을 15
주머니에서 15
무리를 15
안에는 15
점수를 15
증명한다. 15
방울@@ 15
거슬@@ 15
마실 15
충고를 15
재는 15
해준다. 15
la@@ 15
츠@@ 15
사의를 15
전체가 15
생명이 15
와야 15
달러가 15
까? 15
작이 15
붙었다. 15
불필요한 15
그룹@@ 15
가르치는 15
닮았다. 15
성격은 15
수리를 15
기억할 15
핸@@ 15
즈 15
전쟁으로 15
믿기 15
빠지게 15
무대 15
남자를 15
요! 15
무엇인지 15
샘플을 15
맞춰@@ 15
하다니 15
어디로 15
말해야 15
용감@@ 15
당신도 15
돌보@@ 15
성적@@ 15
잘한다. 15
방치@@ 15
ha@@ 15
스며@@ 15
겸@@ 15
서도 15
특징@@ 15
지배@@ 15
지명@@ 15
좁@@ 15
돌아오는 15
바와 15
사막@@ 15
보내졌다. 15
진열@@ 15
부친 15
필수@@ 15
의자 15
파견되었다. 15
학생을 15
상점을 15
주전@@ 15
후에도 15
퍼 15
힘들@@ 15
닝@@ 15
하게도 15
아내에게 15
않겠다고 15
열고 15
었니? 15
부모는 15
목적은 15
고객이 15
수입은 15
넘어져서 15
부탁했다. 15
폈다. 15
사기 15
머물렀다. 15
가르쳤다. 15
기교@@ 15
일하기 15
공연을 15
책상에 15
수건@@ 15
남아@@ 15
지나가는 15
배운 15
토론했다. 15
듯@@ 15
공원에서 15
느라 15
중요성을 15
옳다고 15
잡지를 15
심지어 15
시종 15
않으려고 15
일생@@ 15
흥분했다. 15
갔다 15
주택@@ 15
교회의 15
전쟁에서 15
준비했다. 15
하고@@ 15
남동생@@ 15
층의 15
뺨@@ 15
오른 15
사러 15
요일 15
스스로가 15
10년 15
되었다는 15
상점에서 15
기간을 15
곧장 15
나오지 15
철저하게 15
오르는 15
매일@@ 15
래를 15
어머니께서 15
알립니다. 15
표로 15
근본적으로 15
자세하게 15
제2@@ 15
뒤집@@ 15
세울 15
결정하였다. 15
킬로@@ 15
이태@@ 15
은행이 15
걷고 15
화학 15
스쳐@@ 15
조절@@ 15
여기의 15
문장은 15
노부인은 15
이것들은 15
구이다. 15
"나는 15
버스@@ 15
집안의 15
K@@ 15
보기에는 15
가지게 15
문제로 15
소한 15
우두@@ 15
일련의 15
성명을 15
없으니, 15
제외하고 15
있을까? 15
이후 15
생활이 15
았을 15
알려줄 15
되면, 15
부인의 15
미안하지만, 15
상품에 15
회사와 15
사이를 15
것이며, 15
15일 15
당신측 15
제공한 15
내놓은 15
나이@@ 15
보내온 15
내용을 15
17@@ 15
가축@@ 15
않았다고 15
하자, 15
고에서 15
변호사는 15
문제의 15
아가씨는 15
권투@@ 15
보이는 15
손상을 15
방식@@ 15
조오@@ 15
기본 15
보냅니다. 15
하였으나 15
ic@@ 15
하여서, 15
월의 15
건의합니다. 15
되었는데, 15
에서는, 15
5%의 15
보내드리@@ 15
호에 15
못을 14
군! 14
감싸@@ 14
반박@@ 14
마시지 14
취해서 14
조사하여 14
근심을 14
제작@@ 14
치다 14
바꿔@@ 14
조정@@ 14
내라. 14
웨이@@ 14
쫓아내@@ 14
코르@@ 14
아들@@ 14
럽@@ 14
요점을 14
상대를 14
탁 14
호소@@ 14
그러면 14
자! 14
건드@@ 14
학생이다. 14
터의 14
란을 14
쇠를 14
주의해서 14
부서@@ 14
맘@@ 14
지키지 14
가속@@ 14
커튼을 14
당겼다. 14
:@@ 14
놀았다. 14
마약을 14
길게 14
넘쳐 14
용감한 14
도랑@@ 14
어깨에 14
잃어버렸다. 14
침묵@@ 14
빨라@@ 14
어! 14
청 14
비켜@@ 14
준수@@ 14
Co@@ 14
잊을 14
상반@@ 14
제기한 14
배웅@@ 14
필을 14
바퀴를 14
분해@@ 14
놓아 14
것들을 14
장난감을 14
불어서 14
사용하지 14
매를 14
붙잡@@ 14
노동자들은 14
곁@@ 14
사무실의 14
내리기 14
지붕이 14
사냥꾼@@ 14
부서졌다. 14
일생을 14
필요하다면 14
여기지 14
빠뜨@@ 14
아끼@@ 14
가져 14
방문하러 14
결점을 14
날을 14
남의 14
혐오@@ 14
주머니@@ 14
벤@@ 14
환자의 14
올라 14
관에서 14
야, 14
아니오, 14
신경 14
목에 14
움에 14
선하증@@ 14
만지@@ 14
의기소침@@ 14
습 14
착오를 14
뻗었다. 14
풀이 14
이슬@@ 14
수준을 14
산비탈@@ 14
조소@@ 14
안됩니다. 14
점령@@ 14
성공은 14
룩@@ 14
여져 14
얼었다. 14
생겼@@ 14
지각@@ 14
선장은 14
몰았다. 14
풀어@@ 14
정박@@ 14
파도를 14
서쪽으로 14
어가 14
핀@@ 14
어? 14
이전에는 14
반짝반짝 14
쏘았다. 14
인물@@ 14
모두@@ 14
소환@@ 14
그렇다. 14
팬@@ 14
극 14
트로 14
마을을 14
물러났다. 14
대항@@ 14
방어@@ 14
운행@@ 14
쑤@@ 14
가지의 14
전선을 14
들어올 14
미래에 14
총명한 14
작성@@ 14
의무@@ 14
연을 14
의학@@ 14
뉴욕에 14
일어나 14
비용@@ 14
폭풍이 14
나뭇가지가 14
엔@@ 14
경으로 14
주목을 14
설명을 14
보낸다. 14
개에 14
국가를 14
좀더 14
있어요? 14
근면@@ 14
젊은이@@ 14
림이 14
국회는 14
무장@@ 14
신속@@ 14
나무에서 14
회복했다. 14
부모에게 14
썩 14
의심할 14
가능성은 14
우리측@@ 14
음식 14
맛을 14
2년 14
태웠다. 14
몬@@ 14
윤@@ 14
구에 14
건강은 14
인접@@ 14
이냐? 14
교통이 14
사업이 14
황 14
몰두@@ 14
전쟁의 14
래는 14
여자가 14
달했다. 14
속도로 14
도로에서 14
명이다. 14
꼼@@ 14
무관@@ 14
곤충@@ 14
밝혔다. 14
나기 14
님 14
높이@@ 14
대답할 14
5분 14
차이가 14
월요일@@ 14
아갔다. 14
진행했다. 14
솜@@ 14
도로@@ 14
논거@@ 14
보라고 14
새의 14
학생에게 14
얼굴색이 14
거리 14
한다@@ 14
결점이 14
입구에서 14
의식을 14
맞는 14
만든다. 14
만나기를 14
보석@@ 14
짓을 14
분담@@ 14
스러웠다. 14
가구가 14
낸@@ 14
곤경에 14
형이 14
문제이다. 14
방법이다. 14
못했던 14
무게가 14
또@@ 14
지나지 14
화재@@ 14
통상적으로 14
옷에 14
음의 14
총명하다. 14
믿었다. 14
려야 14
봤@@ 14
형은 14
맞을 14
자전거 14
제안에 14
신뢰@@ 14
배울 14
맡을 14
수수께끼@@ 14
대학을 14
다행@@ 14
고수@@ 14
살았@@ 14
새들이 14
단정@@ 14
스코틀@@ 14
시일 14
사실이다. 14
조준@@ 14
시선을 14
렬하게 14
종의 14
단단히 14
인도할 14
곡 14
훑어 14
사전에 14
시인했다. 14
일반적인 14
단으로 14
자유를 14
그림 14
천은 14
올랐@@ 14
던져 14
소멸@@ 14
에야 14
밖의 14
Peter@@ 14
배상@@ 14
수학@@ 14
생각해@@ 14
었던 14
닦았다. 14
닫았다. 14
깨진 14
어깨 14
껐다. 14
남자의 14
정치에 14
공부할 14
찍었다. 14
었다는 14
연구에 14
수한 14
약속했다. 14
닐@@ 14
내놓았다. 14
진보@@ 14
사람보다 14
띠고 14
어깨@@ 14
얼굴에는 14
명예@@ 14
스럽지 14
결핍@@ 14
한대 14
너에 14
지진@@ 14
없음을 14
위험에 14
고려하고 14
척 14
공예@@ 14
극도로 14
완성했다. 14
느끼지 14
차서 14
낳았다. 14
상세하게 14
생산을 14
자제@@ 14
눌렀다. 14
모퉁이를 14
내리지 14
마을의 14
사기@@ 14
막대@@ 14
제로 14
정식 14
지역 14
사건에 14
시합@@ 14
은행에서 14
했느냐? 14
생명@@ 14
이렇@@ 14
우수@@ 14
끈으로 14
증명되었다. 14
그릇을 14
장한 14
과정을 14
여기고 14
존의 14
단련@@ 14
유익한 14
멈추고 14
간주@@ 14
아픈 14
기억하지 14
걱정된다. 14
드가 14
Bill@@ 14
단호하게 14
적으로는 14
경비를 14
지않은 14
기대하고 14
이행@@ 14
목욕을 14
의도를 14
연락을 14
빌렸다. 14
편이 14
존을 14
운전하는 14
재차 14
시장의 14
과거@@ 14
공장이 14
적지 14
옮@@ 14
세금을 14
거래를 14
달아 14
의미가 14
깨뜨@@ 14
매력@@ 14
하게끔 14
제1@@ 14
귀측의 14
처음에는 14
할머니@@ 14
했으니, 14
클럽에 14
봉사@@ 14
반응을 14
고의로 14
작용@@ 14
하였을 14
선원들은 14
시작했을 14
적극적으로 14
억 14
작가의 14
본사의 14
져서, 14
기간이 14
팔아버@@ 14
상영@@ 14
서신에 14
계급 14
토지는 14
바에 14
능을 14
비교해 14
실의 14
품으로 14
지불하는 14
십시요. 14
무서운 14
꺼내서 14
말해서, 14
고려해야 14
귀교@@ 14
그림자를 14
평균 14
어머니에게 14
망가@@ 14
라틴@@ 14
들어가서 14
아니? 14
포의 14
주문서에 14
것이니 14
걸 14
귀사를 14
더라면, 14
지정@@ 14
쌍방의 14
자마자, 14
없어서, 14
는데@@ 14
간에, 14
했고, 14
신분@@ 14
다가, 14
대충@@ 14
뜻밖에 14
새롭게 14
말하였다. 14
흠@@ 14
참가하도록 14
설명할 14
곤 14
ton@@ 14
1부를 14
일(@@ 14
뉴스를 13
평론@@ 13
브라운 13
노발대@@ 13
총 13
보자. 13
조금만 13
자전@@ 13
화재가 13
버리다 13
수요를 13
참견@@ 13
미치지 13
좋아, 13
입에서 13
경찰을 13
무너졌다. 13
고요@@ 13
따르면 13
봐! 13
고소@@ 13
기다렸@@ 13
강탈@@ 13
맹세@@ 13
귀여@@ 13
자물@@ 13
적과 13
세상을 13
게. 13
고기@@ 13
지불했다. 13
말아야 13
석방@@ 13
할까요? 13
주인@@ 13
미쳤다. 13
기뻐했다. 13
맹렬히 13
대했다. 13
퇴근@@ 13
위험하다. 13
성실하지 13
성질이 13
편평@@ 13
가야만 13
예외@@ 13
방향@@ 13
이르@@ 13
시골에서 13
손잡이를 13
사서 13
글을 13
다듬@@ 13
앗@@ 13
영 13
과연 13
짐승@@ 13
슨 13
타인의 13
수량@@ 13
설탕@@ 13
조항에 13
진지@@ 13
고속@@ 13
중으로 13
주어라. 13
밀가루@@ 13
등급@@ 13
데에 13
굴 13
가열@@ 13
도둑을 13
파를 13
치로 13
홍콩@@ 13
더러@@ 13
상징@@ 13
사무실은 13
돕는 13
위이다. 13
무렵에 13
나가고 13
팀에 13
약해졌다. 13
일어나서 13
슬픔으로 13
찢어졌다. 13
부칩니다. 13
시합은 13
부로 13
결혼할 13
여기저@@ 13
낙관@@ 13
꾸물@@ 13
투 13
아래서 13
농작물을 13
간호사가 13
상태로 13
결 13
박물@@ 13
의무를 13
을까 13
곧바로 13
다만, 13
고함@@ 13
무성@@ 13
환경에 13
역할을 13
발생하지 13
재능을 13
on 13
진공@@ 13
의했다. 13
행복을 13
관여@@ 13
위에는 13
흔들리고 13
버스에서 13
되어, 13
먹어@@ 13
나무로 13
팔아 13
1993년 13
폭풍우 13
치며 13
창문이 13
무늬@@ 13
단단@@ 13
척의 13
글씨를 13
워했다. 13
오직 13
크가 13
떨어지고 13
결심을 13
나뉘@@ 13
"의 13
딕@@ 13
지평@@ 13
홈@@ 13
약하다. 13
대해서@@ 13
법률에 13
귀찮@@ 13
근거가 13
방지@@ 13
비누@@ 13
표한다. 13
갑작@@ 13
일었다. 13
불었다. 13
가슴이 13
풍부하다. 13
수영하는 13
봉급@@ 13
모양@@ 13
감기는 13
굴뚝@@ 13
불리하다. 13
뼈를 13
고대 13
뼈@@ 13
이리 13
지각을 13
편안한 13
모여@@ 13
들도 13
비슷하다. 13
한편@@ 13
자물쇠@@ 13
추는 13
영국에 13
기고 13
둘러 13
훼손@@ 13
달린다. 13
선다. 13
기운이 13
싣@@ 13
절도@@ 13
빈곤@@ 13
죽게 13
정해졌다. 13
연한 13
돌이 13
경기@@ 13
금속은 13
금년의 13
날이다. 13
일요@@ 13
번거로@@ 13
물고@@ 13
추적@@ 13
널리 13
파멸@@ 13
무한@@ 13
군대가 13
지킨다. 13
편을 13
시험은 13
밭을 13
지식@@ 13
왕림@@ 13
얘기하지 13
오면 13
겨울을 13
당선되었다. 13
질은 13
해변에서 13
형제가 13
형제는 13
역에서 13
맹렬한 13
유창@@ 13
층에서 13
길의 13
돌려서 13
발전을 13
쁠 13
실수@@ 13
조금의 13
중시@@ 13
상적인 13
미는 13
싸게 13
화의 13
기대한다. 13
칠했다. 13
호평을 13
기억이 13
가수는 13
도둑이 13
연결되어 13
침묵을 13
접시@@ 13
번거@@ 13
이지, 13
가죽@@ 13
대사를 13
잊어버렸다. 13
전해졌다. 13
풍에 13
대하는 13
음식에 13
적절@@ 13
고기 13
당하게 13
유행성 13
남녀 13
획@@ 13
의로 13
그보다 13
야겠다. 13
쳐야 13
진찰을 13
수입이 13
달걀@@ 13
드릴@@ 13
깨끗@@ 13
주면 13
믿어도 13
사전 13
요리를 13
와도 13
머니 13
갚을 13
부족한 13
지원@@ 13
아이스크@@ 13
우리들과 13
마땅@@ 13
옷감을 13
나이든 13
연하다. 13
견적@@ 13
성공의 13
시켰@@ 13
박하게 13
구로 13
휘발@@ 13
낮다. 13
양호@@ 13
재료를 13
보십시오. 13
일깨@@ 13
불에 13
Pa@@ 13
튀@@ 13
돌진했다. 13
마음의 13
착수@@ 13
국민의 13
마주@@ 13
상처가 13
일요일@@ 13
야생@@ 13
기다리지 13
킨@@ 13
누워서 13
책꽂@@ 13
토마@@ 13
체결@@ 13
안건@@ 13
Ro@@ 13
이용할 13
질러 13
테이프@@ 13
쓰러뜨렸다. 13
조로 13
돌보았다. 13
고서 13
나와서 13
적군@@ 13
자백했다. 13
보다도 13
글자를 13
동요@@ 13
비난을 13
이마@@ 13
경솔하게 13
가운@@ 13
성격@@ 13
좌절@@ 13
행동거@@ 13
발작@@ 13
사업은 13
누구에게도 13
냉담@@ 13
머리카락은 13
받기 13
왔다갔다 13
끄덕@@ 13
아동@@ 13
불만을 13
채가 13
한을 13
피곤해서 13
바빠서 13
음에 13
굴복@@ 13
시끌@@ 13
끄는 13
적군을 13
단결@@ 13
화로 13
기쁨을 13
버스에 13
깜박@@ 13
바라고 13
입원@@ 13
발자국 13
토로@@ 13
부모의 13
생각해냈다. 13
쩍@@ 13
눈빛으로 13
손짓으로 13
화제를 13
지팡@@ 13
샌@@ 13
귀한 13
대에서 13
기숙@@ 13
지나갈 13
걷는 13
세심하게 13
형용@@ 13
더했다. 13
읽은 13
다이아몬@@ 13
이제껏 13
여행하는 13
자부@@ 13
가슴에 13
기쁜 13
생각한 13
사무실로 13
선포했다. 13
났기 13
손가락으로 13
딸이 13
모임에서 13
성적을 13
부드러운 13
듣자 13
액 13
보다는 13
압도@@ 13
목적을 13
돌리@@ 13
옮겨 13
금액을 13
말들을 13
비통@@ 13
지시를 13
낫@@ 13
걸린 13
확신합니다. 13
하느라 13
좀@@ 13
도처에서 13
듯한 13
지어져 13
엉망으로 13
위로@@ 13
력과 13
빕니다. 13
여지@@ 13
달은 13
현재는 13
et@@ 13
성탄절 13
몰려 13
세의 13
해져 13
낮게 13
영국은 13
밀어@@ 13
울퉁불퉁@@ 13
지낼 13
사와 13
원자@@ 13
존스 13
모퉁이에서 13
이곳의 13
죽어@@ 13
호텔은 13
통하는 13
도달했다. 13
숙련@@ 13
경고@@ 13
부여@@ 13
넣어야 13
효과@@ 13
두어야 13
버려야 13
동봉하여 13
걸어가@@ 13
최종@@ 13
키는 13
식품@@ 13
?" 13
귀하에게 13
개로 13
커미션은 13
삼았다. 13
훈계@@ 13
제국주의@@ 13
과거 13
광고@@ 13
평평@@ 13
이외에 13
조금씩 13
시카@@ 13
우승@@ 13
대원들은 13
일으킨 13
지방@@ 13
세계대@@ 13
자동차@@ 13
런던의 13
말하자면, 13
스터@@ 13
방안을 13
45@@ 13
의안을 13
데, 13
소집@@ 13
않았으나, 13
투쟁을 13
조립@@ 13
복잡한 13
공장에 13
노동자들이 13
사고에 13
방식에 13
친히 13
편지와 13
출한 13
일들을 13
골이 13
화물의 13
거칠고 13
의장은 13
떨어지는 13
열어서 13
강연자는 13
하나씩 13
재잘@@ 13
동지는 13
자들에게 13
보험 13
진지하게 13
교훈@@ 13
잉글@@ 13
무언@@ 13
뻔 13
중을 13
기쁠 13
씨의 13
언어로 13
려서, 13
더니, 13
선적을 13
세부 13
인식@@ 13
포 13
자신은 13
신문의 13
부근의 13
해줄 13
의식@@ 13
시스템@@ 13
력의 13
수밖에 13
영수@@ 13
처음부터 13
없는데, 13
우리회사의 13
감사드리@@ 13
연속@@ 13
군인들은 13
보장합니다. 13
일람@@ 13
Tom은 13
아부@@ 12
하지마! 12
바보 12
아버지께서는 12
잃어버@@ 12
타이어가 12
쭈@@ 12
펼@@ 12
복습@@ 12
합니다! 12
공급이 12
목숨을 12
수단을 12
기괴@@ 12
세월@@ 12
죽는다. 12
홍수가 12
5파운드를 12
회답해 12
즙@@ 12
플러@@ 12
다음과 12
도박을 12
대통령 12
보아@@ 12
세차게 12
선생님, 12
해지기 12
구부렸다. 12
작다. 12
놈! 12
사물을 12
다투어 12
기다려 12
자리로 12
기구를 12
0 12
이게 12
수고@@ 12
끓어 12
핍@@ 12
스스로를 12
뛰어갔다. 12
누워@@ 12
증오@@ 12
자살@@ 12
요청했다. 12
어두워졌다. 12
방향으로 12
방세를 12
회전@@ 12
긋@@ 12
여러분@@ 12
아프@@ 12
윌리@@ 12
무죄@@ 12
타를 12
밤이 12
공포를 12
페인트가 12
페인@@ 12
뼈가 12
독이 12
Jim@@ 12
머리카락을 12
얇@@ 12
좋을@@ 12
공사@@ 12
사고에서 12
원숭@@ 12
사랑은 12
규정된 12
작동@@ 12
당신들 12
자루를 12
줄로 12
파이프를 12
고객에게 12
논점을 12
나뭇가지를 12
드라이@@ 12
주어@@ 12
분간 12
채워@@ 12
익을 12
끝내@@ 12
계신다. 12
흰 12
이륙@@ 12
수여@@ 12
얇은 12
도와서 12
포장은 12
고려하지 12
운명을 12
온도가 12
모서@@ 12
해진다. 12
각양각색의 12
섬에 12
사기꾼@@ 12
미혹@@ 12
출국@@ 12
팔렸다. 12
부이다. 12
이전보다 12
제지@@ 12
묘한 12
표결@@ 12
류에 12
환자에게 12
이야기해 12
아침밥을 12
뜨고 12
켓 12
딱@@ 12
부추@@ 12
잡지 12
앓고 12
가격의 12
조심하지 12
소홀히 12
덕 12
틀 12
무지@@ 12
식당@@ 12
기초@@ 12
잔디@@ 12
철거@@ 12
초월@@ 12
연착@@ 12
무기를 12
층이 12
유명@@ 12
무사@@ 12
항구에 12
커튼이 12
바래@@ 12
잠겼다. 12
집합@@ 12
상속@@ 12
옛@@ 12
주변@@ 12
그림자가 12
대학은 12
쇄@@ 12
때리고 12
한방 12
인기가 12
일어났@@ 12
쬐@@ 12
갑니까? 12
함 12
ck@@ 12
보급@@ 12
우를 12
대장은 12
...에 12
원피@@ 12
멍청한 12
느리다. 12
착오가 12
위조@@ 12
문서를 12
누구나 12
잠깐 12
상승했다. 12
재가 12
도착한다. 12
비행기의 12
판에 12
일으킬 12
윗@@ 12
잖@@ 12
흐트러@@ 12
폭 12
넓은 12
빽빽@@ 12
천연@@ 12
뚜껑@@ 12
그런@@ 12
춘다. 12
끄러@@ 12
그려@@ 12
입에 12
규칙은 12
한밤중에 12
젤@@ 12
유지한다. 12
치웠다. 12
뭘 12
비열한 12
드의 12
색과 12
그이 12
10달러를 12
혼 12
부에서 12
정각에 12
개최@@ 12
기관@@ 12
연료가 12
힌다. 12
기독교@@ 12
책상@@ 12
얼 12
질병이 12
싶어하는 12
비싸다. 12
건물 12
류로 12
느슨@@ 12
근육@@ 12
학생의 12
교수@@ 12
잭@@ 12
세요? 12
구독@@ 12
월요일 12
뒤를 12
지내@@ 12
설령 12
목격@@ 12
군중을 12
된다는 12
시킨 12
임금 12
벅@@ 12
어찌할 12
수업시간에 12
공기는 12
모임@@ 12
들어가게 12
늦을 12
쓰레@@ 12
늑@@ 12
미안하지만 12
비틀거리며 12
연주했다. 12
풀밭@@ 12
생산 12
싸우고 12
관계는 12
하나로 12
로로 12
출했다. 12
여행은 12
상해에서 12
말과 12
귀는 12
턴@@ 12
엔진@@ 12
실이 12
미국은 12
아름다움은 12
어디 12
비서가 12
당시에 12
엉망@@ 12
끼고 12
식사는 12
그곳의 12
역사를 12
지붕은 12
쫓겨났다. 12
독립@@ 12
향하여 12
짐은 12
단락@@ 12
기사는 12
일하게 12
더운 12
했는지를 12
류를 12
소년들은 12
밀려 12
식물@@ 12
날개를 12
가파@@ 12
울었다. 12
빌려줄 12
그지 12
어지럽@@ 12
축구를 12
구멍이 12
신발 12
군데 12
파악@@ 12
불공평@@ 12
의무가 12
회복할 12
머무르@@ 12
어때요? 12
않겠@@ 12
움직일 12
부품을 12
옳지 12
산보@@ 12
언어를 12
모임을 12
것입니@@ 12
깍@@ 12
이어 12
리려고 12
말씀을 12
견을 12
머무@@ 12
매료@@ 12
판에서 12
치다. 12
배수@@ 12
배심@@ 12
하나에 12
보편@@ 12
낡@@ 12
침범@@ 12
잡지@@ 12
갖다 12
들어와서 12
몫@@ 12
장부를 12
런던으로 12
치마가 12
Tom@@ 12
편안하게 12
열렬히 12
거쳐 12
지난번에 12
디자@@ 12
검은@@ 12
10시에 12
St@@ 12
방문했다. 12
예 12
이론을 12
시장이 12
피하려고 12
내리는 12
2,@@ 12
받아들이지 12
입는다. 12
쪽이 12
고쳤다. 12
파란@@ 12
그리 12
말렸다. 12
잘랐다. 12
사항@@ 12
운전면@@ 12
반역@@ 12
디 12
강요했다. 12
체중@@ 12
보상@@ 12
아랑곳하지 12
두지 12
되었음을 12
노예@@ 12
마디를 12
뉴욕에서 12
작정이다. 12
우체국에 12
사장의 12
it@@ 12
도착 12
달라는 12
현 12
운전 12
상태는 12
움으로 12
딸은 12
법이 12
종 12
다리에 12
조급@@ 12
의한 12
오른쪽 12
붕@@ 12
모았다. 12
충성@@ 12
돈에 12
인물이다. 12
관점은 12
둘렀다. 12
험 12
부쳤다. 12
건의했다. 12
수술을 12
정통하다. 12
인도를 12
같아 12
퀴 12
사업에 12
감정이 12
상환@@ 12
결혼은 12
시키려고 12
모했다. 12
표준@@ 12
점심@@ 12
외에서 12
고대@@ 12
이야기한다. 12
수입 12
각종의 12
청구@@ 12
불합격@@ 12
부칠 12
서명했다. 12
쟁취@@ 12
가족이 12
쏘아 12
돌아오지 12
태어난 12
주교@@ 12
치이다. 12
의료@@ 12
운동 12
상대방을 12
설득했다. 12
말투@@ 12
민족@@ 12
잔인@@ 12
믿을만한 12
경기에 12
커서 12
시절을 12
러운 12
교정@@ 12
최고@@ 12
끼 12
5년 12
것이었다. 12
후회했다. 12
시집@@ 12
슬픈 12
달았다. 12
색깔이 12
수선@@ 12
개막@@ 12
감염@@ 12
셋@@ 12
아이디@@ 12
비에 12
난로 12
무대에서 12
사무실에서 12
어두워지기 12
들렸다. 12
용서할 12
온도@@ 12
하다@@ 12
벙@@ 12
뚝@@ 12
벌의 12
시계@@ 12
줄어@@ 12
이라면 12
미안합니다. 12
기술을 12
비행장에 12
주제@@ 12
사용해서 12
3시에 12
세로 12
편한 12
하얀 12
본을 12
바쁜 12
범은 12
결정할 12
최대의 12
여길 12
취소할 12
반지를 12
원료@@ 12
보내드립니다. 12
트럭 12
사람도 12
24@@ 12
이민@@ 12
야기된 12
인디@@ 12
응용@@ 12
전파@@ 12
언젠@@ 12
신선@@ 12
눌려 12
인에 12
로프@@ 12
경이@@ 12
연로@@ 12
조화@@ 12
이해하기 12
부정@@ 12
연구 12
감하게 12
불가@@ 12
군에 12
정치가는 12
타지 12
핑계를 12
단어의 12
하였기 12
토지를 12
반동@@ 12
미국에서 12
마쳤다. 12
?@@ 12
나은 12
모르겠습니다. 12
공동으로 12
주기 12
쌍방 12
들었을 12
공업 12
다니는 12
10일에 12
주인공@@ 12
파손@@ 12
돌아가신 12
하였으며, 12
그린 12
정부 12
협의에 12
비교할 12
쳐서, 12
마찬가지로 12
찾아내@@ 12
의거@@ 12
않았다면 12
마디@@ 12
방송을 12
학생들의 12
생각나게 12
부와 12
친구들은 12
시절@@ 12
정객@@ 12
명확하게 12
삼아 12
알아야 12
다음주 12
표의 12
지않고 12
색, 12
근거하여 12
입학@@ 12
제시 12
이라면, 12
하다면, 12
신다면, 12
온다면, 12
수량을 12
물었@@ 12
하에서 12
라도, 12
커서, 12
클럽@@ 12
오스트레일리아@@ 12
있었는데, 12
것은, 12
없지만, 12
인가를 12
만족할 12
순간에 12
소방@@ 12
자본주의 12
에는, 12
뚱@@ 12
자격을 12
30일 12
커미션@@ 12
동봉하니 12
있은 12
계좌에 12
후퇴@@ 11
편히 11
느슨하게 11
노동자를 11
동쪽으로 11
치우@@ 11
워하지 11
상관하지 11
싸우지 11
아서는 11
가다 11
지다 11
거꾸로 11
멈췄다. 11
모으@@ 11
포가 11
갈아@@ 11
에게도 11
기다리는 11
하. 11
논쟁을 11
시작하다 11
수학을 11
수업이 11
향을 11
우유@@ 11
얕@@ 11
우정을 11
감자를 11
닦아라. 11
통행@@ 11
괴로움을 11
둥글@@ 11
가늘@@ 11
재미있다. 11
맞게 11
참고 11
파했다. 11
가세요. 11
구분@@ 11
가자. 11
인간@@ 11
뱀은 11
생일 11
장사가 11
사진이 11
가르친다. 11
달려갔다. 11
바닥을 11
22@@ 11
배운다. 11
헐떡@@ 11
깁@@ 11
무릎을 11
신했다. 11
연기했다. 11
하늘의 11
뜻은 11
물러나@@ 11
예쁘@@ 11
밖@@ 11
꽃 11
심문@@ 11
피곤해 11
엉덩@@ 11
이해한다. 11
찬성한다. 11
픔@@ 11
첨가@@ 11
낌@@ 11
박을 11
고마@@ 11
만나 11
답안을 11
들어야 11
조심해야 11
펀@@ 11
정말@@ 11
하다! 11
소나기가 11
평안@@ 11
화이@@ 11
십니다. 11
들어오지 11
생각지도 11
앨@@ 11
An@@ 11
벨을 11
체포되었다. 11
넘겨 11
걸어라. 11
즈를 11
튜@@ 11
두껍@@ 11
돌봐@@ 11
밟아 11
못에 11
어로 11
매듭@@ 11
벗겨@@ 11
렛@@ 11
밀 11
폭의 11
금속 11
바싹 11
쌀@@ 11
일년 11
블라@@ 11
조합@@ 11
번거로운 11
말다툼@@ 11
설탕 11
밀가루 11
파운드는 11
풍습@@ 11
론이 11
휩쓸@@ 11
해롭다. 11
Jane@@ 11
폭발로 11
음모를 11
선고@@ 11
령을 11
끌어들@@ 11
본인의 11
올해 11
잡지는 11
문장@@ 11
무승@@ 11
시합의 11
취소되었다. 11
입어야 11
하의 11
변화는 11
파이를 11
낭비하지 11
난처@@ 11
감정@@ 11
헛되이 11
처 11
산허@@ 11
침식@@ 11
장기간 11
회복되었다. 11
고생@@ 11
수술 11
형이다. 11
햄@@ 11
모르겠@@ 11
돕지 11
보장할 11
잘못이 11
끌지 11
내뿜@@ 11
유치@@ 11
걸려@@ 11
범하지 11
보기를 11
려졌다. 11
불고 11
실었다. 11
냐@@ 11
그래@@ 11
존경을 11
칭찬을 11
기호@@ 11
걸린다. 11
폭풍우를 11
퍼부었다. 11
돛@@ 11
움직였다. 11
주했다. 11
부딪혀 11
봉쇄@@ 11
커튼@@ 11
이룬다. 11
창은 11
뒤덮@@ 11
햇빛 11
구역@@ 11
액면@@ 11
떨어졌@@ 11
산으로 11
이야! 11
렉@@ 11
스트를 11
두려워한다. 11
휙 11
보스@@ 11
명단을 11
앉을 11
설로 11
위원회 11
일이나 11
거기@@ 11
불빛이 11
적군이 11
말랐다. 11
방직@@ 11
이탈@@ 11
천둥@@ 11
베이@@ 11
방영@@ 11
영화가 11
오락@@ 11
30분@@ 11
상관@@ 11
견해는 11
거울@@ 11
정원@@ 11
지겨@@ 11
뻔뻔@@ 11
행위가 11
의미한다. 11
탄을 11
보내기 11
발음@@ 11
판사가 11
항의를 11
휴식을 11
방안에 11
10분 11
글 11
사람마다 11
꿀@@ 11
정원에 11
이익에 11
시대의 11
전보 11
대출@@ 11
배이다. 11
외교@@ 11
같은@@ 11
개혁@@ 11
철은 11
하시오. 11
일제히 11
릅@@ 11
보수를 11
윤곽@@ 11
뼈다@@ 11
물어 11
갉@@ 11
이야기가 11
나타난다. 11
릿 11
자녀@@ 11
짓고 11
놀이를 11
올라왔다. 11
글자는 11
되어있다. 11
끝났@@ 11
만나서 11
꽃은 11
틀린 11
열릴 11
만에 11
헤어졌다. 11
기차의 11
들어온다. 11
10시 11
철로 11
해져서 11
포로 11
모범@@ 11
휴가가 11
X@@ 11
리버@@ 11
달러로 11
파운드로 11
운전사가 11
기차에 11
누그러@@ 11
감안@@ 11
친구 11
비추었다. 11
잭은 11
사실과 11
부합되지 11
하강@@ 11
햇볕@@ 11
구름은 11
경의를 11
밤에는 11
래가 11
경치가 11
흐릿@@ 11
태를 11
술은 11
제도는 11
걸렸@@ 11
클럽은 11
철회@@ 11
전체를 11
장악@@ 11
흉내@@ 11
과학은 11
포함한다. 11
지불한다. 11
들아, 11
짚@@ 11
성난 11
팔이 11
들여서 11
발생한다. 11
소의 11
협력@@ 11
옆 11
이웃 11
려갔다. 11
법이다. 11
살금살금 11
알아 11
창문@@ 11
받는@@ 11
절로 11
배회@@ 11
내일은 11
수잔@@ 11
지냈다. 11
노란@@ 11
식의 11
따름@@ 11
발은 11
군관은 11
칫@@ 11
동지를 11
떠 11
여관은 11
부상을 11
수리 11
심란@@ 11
개인의 11
노래는 11
영예를 11
바를 11
책들은 11
총알이 11
곤혹@@ 11
듬@@ 11
즈가 11
사진은 11
못된 11
말하면 11
지은 11
건물의 11
우유는 11
굴러 11
만나지 11
비뚤@@ 11
봅@@ 11
생각합니까? 11
신문 11
하리라는 11
드시겠습니까? 11
갖게 11
진한 11
응당 11
신고@@ 11
개구@@ 11
쟁이 11
숙녀@@ 11
중국에서 11
넣는 11
고도 11
새들은 11
음료를 11
쌓아 11
셔 11
기대합니다. 11
도이다. 11
부딪쳐 11
훔친 11
앞 11
신중하게 11
주머니를 11
자료@@ 11
검토@@ 11
만나러 11
복숭@@ 11
징벌을 11
실례@@ 11
용서해 11
John이 11
Jones@@ 11
아닌지 11
어의 11
여자아이@@ 11
결혼식에 11
생일을 11
먹어야 11
성격이 11
참가하러 11
틀리지 11
반응@@ 11
하기는 11
시간과 11
가리키@@ 11
통화@@ 11
세상@@ 11
오가 11
곤란한 11
계속하여 11
주관@@ 11
모욕을 11
미래를 11
보트는 11
조이다. 11
틱@@ 11
뿌렸다. 11
발랐다. 11
주머니에 11
자세를 11
만드는 11
면직@@ 11
6개월@@ 11
출되었다. 11
Ed@@ 11
너보다 11
행동했다. 11
상기@@ 11
종사한다. 11
식탁@@ 11
제의했다. 11
부딪쳐서 11
un@@ 11
자질구레@@ 11
허사가 11
놀랍@@ 11
속임@@ 11
해석을 11
붉게 11
꾀@@ 11
다했다. 11
아무렇게나 11
광범위@@ 11
강으로 11
옆에서 11
끝없이 11
심했다. 11
분개@@ 11
동굴@@ 11
부분의 11
특별 11
체력이 11
한바@@ 11
질에 11
면전에서 11
조용한 11
아내와 11
논문을 11
획득했다. 11
기본@@ 11
랄 11
다할 11
도달할 11
지급@@ 11
면했다. 11
단계에 11
도와야 11
신분을 11
일요일 11
어슬렁@@ 11
프랑스에 11
우호@@ 11
노인을 11
일치 11
못해 11
George@@ 11
평생 11
열정이 11
열정@@ 11
경향이 11
무죄라는 11
크지 11
무용@@ 11
흙을 11
대적으로 11
랭@@ 11
으쓱@@ 11
훔쳐@@ 11
슬펐다. 11
욕이 11
양양@@ 11
있으리라 11
공장으로 11
손짓을 11
마음속에 11
파트@@ 11
날씨를 11
한마디도 11
일주일에 11
의존@@ 11
부속@@ 11
무거@@ 11
관계 11
스와 11
가에서 11
최대한 11
맞은편에 11
전념@@ 11
지지한다. 11
유감스럽게 11
두는 11
쓸모가 11
조건이 11
남편을 11
화려한 11
중인 11
풍부@@ 11
의복@@ 11
영어는 11
회상@@ 11
마디도 11
들어오는 11
풀 11
보석을 11
추어 11
예이다. 11
히는 11
우승을 11
찬란@@ 11
권고를 11
질러@@ 11
투자@@ 11
토끼는 11
방문할 11
속한 11
숨이 11
가끔 11
곁을 11
총에 11
하지도 11
컴퓨터@@ 11
느껴졌다. 11
제안@@ 11
보겠다. 11
찾아낼 11
제기할 11
정거장에 11
렬한 11
내린다. 11
확실하게 11
채울 11
우에 11
정도의 11
교육 11
스크@@ 11
맴@@ 11
노력해야 11
어질 11
스코@@ 11
정당은 11
광택@@ 11
엘리자베@@ 11
음식과 11
물체는 11
물고기는 11
언어는 11
예의@@ 11
Jo@@ 11
시장@@ 11
달의 11
사회에서 11
기후는 11
열쇠@@ 11
유효하다. 11
수량은 11
타격@@ 11
미터이다. 11
노동자는 11
시속 11
정비@@ 11
과에 11
닌 11
그어 11
타 11
장하고 11
축원을 11
거액의 11
끈적@@ 11
제외@@ 11
토요일@@ 11
다: 11
멈출 11
!@@ 11
x@@ 11
3%의 11
작업은 11
성의 11
없이, 11
추진@@ 11
주제를 11
장기간의 11
줍@@ 11
물론 11
가득한 11
기입@@ 11
보험을 11
으므로 11
까지의 11
실종된 11
ra@@ 11
했으면 11
씩@@ 11
한데, 11
할인해 11
관점을 11
있어, 11
196@@ 11
조종@@ 11
비행기@@ 11
위탁 11
처리를 11
항목에 11
경영 11
197@@ 11
작으로 11
인류는 11
미안하다. 11
연회에 11
결정한 11
s는 11
외에도 11
하다면 11
해결하는 11
되었기 11
천진 11
Ma@@ 11
국가 11
돌아가서 11
더듬어 11
은행 11
불리한 11
했고 11
보아 11
있어서의 11
시켜서 11
제공해 11
호텔의 11
체에 11
도시로 11
전체의 11
버린 11
내년에 11
작곡@@ 11
강연이 11
기계 11
상인은 11
마지막@@ 11
했다면 11
금요일 11
알려주십시오. 11
텐데@@ 11
;@@ 11
것이지 11
있으시@@ 11
성사@@ 11
여왕의 11
가서, 11
조회@@ 11
조항을 11
장과 11
가족에게 11
전송@@ 11
장애가 11
촬영@@ 11
노력해서 11
연회@@ 11
문제들을 11
고려한 11
당신들에게 11
정성@@ 11
제때 11
수수@@ 11
표현할 11
결승@@ 11
생각치 11
마자 11
성냥을 11
캘리포니아@@ 11
성적이 11
기술 11
래에 11
퇴근 11
레닌@@ 11
정도에 11
아닌지를 11
성립@@ 11
회사로 11
지난번 11
어음을 11
사람이라는 11
하에서, 11
중에, 11
대금 11
달러짜리 11
마을에서 11
귀하@@ 11
짜증나게 11
오더@@ 11
사수하여 11
보여준다. 11
벗어나@@ 10
연기 10
묻는 10
군대를 10
임대@@ 10
잡초를 10
사격@@ 10
연습을 10
하자! 10
있다 10
와! 10
방울이 10
털어 10
돛이 10
주다. 10
노를 10
풍향이 10
심각하다. 10
먹을@@ 10
빨리@@ 10
마지 10
시이다. 10
부지@@ 10
쓸데@@ 10
담에 10
분산@@ 10
잎이 10
주먹을 10
단조@@ 10
말다툼을 10
선거에 10
설에 10
이것 10
호랑이는 10
롭고 10
그것들은 10
없습니까? 10
죽을@@ 10
탈출@@ 10
오! 10
몸 10
질문@@ 10
볐다. 10
값@@ 10
존재한다. 10
가요? 10
순환@@ 10
밧줄을 10
날듯이 10
지쳤다. 10
살아 10
흘렸다. 10
욕했다. 10
박수를 10
취가 10
중상을 10
맙소사! 10
하늘은 10
울타리를 10
야유@@ 10
쾌하게 10
여보@@ 10
향기를 10
의사이다. 10
존경한다. 10
5시 10
삭감@@ 10
운반 10
그지@@ 10
토요일에 10
금요일에 10
감추@@ 10
밝다. 10
냉장@@ 10
반대이다. 10
저장@@ 10
놔@@ 10
"은 10
분한 10
습니다, 10
사진 10
하소@@ 10
돌아가셨@@ 10
an은 10
모친@@ 10
시오. 10
접수@@ 10
부대를 10
박았다. 10
진하게 10
덩어리로 10
차게 10
짜 10
위치에 10
사다리를 10
탁탁 10
부드럽게 10
화원의 10
셔츠는 10
폐 10
응시@@ 10
진행되고 10
동했다. 10
깨졌다. 10
지방의 10
바다를 10
기계에 10
가지가 10
시합이 10
부동@@ 10
꽤나 10
벌었다. 10
촌 10
끼워 10
찌푸@@ 10
취를 10
결정에 10
서두@@ 10
아이들 10
항로를 10
밑에서 10
바이@@ 10
조만간 10
해지고 10
걸리지 10
습니다만, 10
새끼@@ 10
쿵@@ 10
간섭하지 10
고양이 10
여자의 10
외모@@ 10
실패로 10
걷지 10
게시@@ 10
gh@@ 10
장관@@ 10
건축 10
사직을 10
참가한 10
밉살@@ 10
뜨겁@@ 10
뜨거@@ 10
채찍@@ 10
돈다. 10
불행을 10
객 10
횡단@@ 10
얼음 10
레가 10
속에는 10
지저@@ 10
분하다. 10
유언@@ 10
항구로 10
해안에 10
풍으로 10
꼈@@ 10
보가 10
짙@@ 10
코로 10
둘러싸여 10
멋진 10
이이다. 10
수풀 10
쇠퇴@@ 10
홍수로 10
붕괴@@ 10
발포@@ 10
대체로 10
있다가 10
약에 10
er 10
지역에 10
금속이 10
해라, 10
망가뜨렸다. 10
도처에 10
찻@@ 10
넌@@ 10
t 10
추고 10
등은 10
가치 10
커졌다. 10
태양 10
확실하다. 10
돌고 10
부분으로 10
물가는 10
릉@@ 10
구멍으로 10
점원은 10
친구들을 10
겨울에는 10
이곳은 10
사자가 10
엄하게 10
혐의@@ 10
배려@@ 10
선물@@ 10
수면을 10
펄럭@@ 10
무릇 10
누구든지 10
빙빙 10
위치한다. 10
지어졌다. 10
안개로 10
삐걱@@ 10
왔다 10
아버지께서 10
도처@@ 10
발견은 10
운송을 10
조항@@ 10
신용장은 10
헐@@ 10
즈는 10
스페인@@ 10
박하다. 10
소용없다. 10
우표를 10
무료@@ 10
향기가 10
그림의 10
간단히 10
인류의 10
시장을 10
관목@@ 10
굵@@ 10
국민을 10
회신을 10
지나 10
건널 10
흥분해서 10
바다 10
물고기가 10
히게 10
굉장한 10
비행기로 10
척이 10
총소리가 10
소금은 10
부축@@ 10
샤@@ 10
욱@@ 10
혼란에 10
2시간 10
들어왔@@ 10
멈추어 10
식간에 10
그도 10
설교@@ 10
진은 10
신속한 10
가격과 10
제인은 10
되다. 10
식물의 10
통화팽창@@ 10
마이@@ 10
교역이 10
대할 10
동맹@@ 10
받으면 10
생산량은 10
기온이 10
사슴@@ 10
최대한의 10
가다. 10
술이 10
어지럽게 10
원인이다. 10
모임은 10
톱질@@ 10
극장은 10
지지할 10
공개적으로 10
난로를 10
획득@@ 10
여객@@ 10
신청을 10
성과@@ 10
벌이 10
직원@@ 10
손수건@@ 10
비유@@ 10
정오에 10
쥐는 10
행진@@ 10
우르릉 10
빼앗았다. 10
역사는 10
이윤은 10
이용하여 10
얻으려고 10
시에서 10
그루@@ 10
2년이 10
회담@@ 10
쐈다. 10
부모님은 10
쓰도록 10
크로 10
이루어진 10
빨갛@@ 10
엄마는 10
질병@@ 10
거리다. 10
짱@@ 10
항 10
덤@@ 10
훌@@ 10
쩍 10
달리 10
살지 10
쏟아졌다. 10
반했다. 10
준수해야 10
목사가 10
하므로 10
적수를 10
빴다. 10
돌로 10
사회를 10
진흙이 10
코너를 10
장면은 10
한테 10
도달@@ 10
여자아이가 10
죄수는 10
상자@@ 10
건강하다. 10
교활@@ 10
근로자는 10
애는 10
옅은 10
경주@@ 10
성대한 10
분위기를 10
져있다. 10
공공@@ 10
명백히 10
연출@@ 10
거리게 10
병에서 10
걸음@@ 10
한푼@@ 10
창문으로 10
소년들이 10
부장은 10
답장@@ 10
나일@@ 10
이사를 10
걱정할 10
장황@@ 10
그냥 10
하늘@@ 10
진심@@ 10
불평을 10
목표는 10
명성이 10
이름 10
의견과 10
남동생은 10
졌다고 10
야채@@ 10
바이올@@ 10
빌려준 10
기분 10
발견할 10
내려서 10
너희는 10
창피@@ 10
옮길 10
지킬 10
John의 10
일리가 10
즐겨 10
뿌리@@ 10
정류@@ 10
조롱@@ 10
예측할 10
상한다. 10
소녀가 10
주재@@ 10
환영했다. 10
해주시겠습니까? 10
상점에 10
평소에 10
일어나지 10
찢었다. 10
나머지 10
시키려 10
기후@@ 10
잃고 10
기름 10
George는 10
말아 10
붙여 10
장부 10
괜찮겠습니까? 10
혼자@@ 10
사인을 10
만은 10
한쪽 10
Jean은 10
튕@@ 10
이니 10
선원이 10
태워@@ 10
열로 10
들려@@ 10
드나@@ 10
듣는다. 10
강하게 10
질병에 10
자금@@ 10
간다면 10
있었다면 10
눈앞에 10
경작@@ 10
상처에서 10
전반@@ 10
정당한 10
사회의 10
그럭저럭 10
늦어서 10
분투@@ 10
유한@@ 10
생동@@ 10
전투를 10
용납하지 10
줄일 10
라디@@ 10
노는 10
놀란 10
장난을 10
가겠다. 10
워도 10
금속을 10
언제라도 10
마음으로 10
기댔다. 10
비틀어 10
몰아@@ 10
일러@@ 10
씨에게 10
밖을 10
심각하게 10
진흙 10
불평했다. 10
보고했다. 10
혼미@@ 10
고발되었다. 10
배척@@ 10
작정@@ 10
분하게 10
인색@@ 10
딱딱한 10
부주의해서 10
누설@@ 10
의지해서 10
집안 10
무엇인지를 10
사실이라는 10
콤@@ 10
자라는 10
굉장@@ 10
일어난 10
의자에서 10
온다고 10
이튿날 10
까봐 10
걱정했다. 10
모호@@ 10
전세계@@ 10
팔려고 10
행동거지가 10
상처는 10
관중을 10
질투@@ 10
뛰고 10
완성될 10
자존@@ 10
작품은 10
넘어질 10
너처럼 10
열정을 10
고향을 10
신용을 10
으로써 10
뱅@@ 10
반대했다. 10
음료@@ 10
베었다. 10
드러냈다. 10
보내고 10
열중@@ 10
사방을 10
완전한 10
얻고 10
읽지 10
기억했다. 10
유지했다. 10
취할 10
가슴 10
불안했다. 10
개혁을 10
흥미진@@ 10
주위를 10
어에 10
걱정을 10
미칠 10
흩어@@ 10
법원의 10
번다. 10
질로 10
수영하러 10
소리도 10
멈@@ 10
쫓아냈다. 10
물려@@ 10
산골짜@@ 10
정교@@ 10
밤새도록 10
찬성했다. 10
헤어@@ 10
심야@@ 10
갖는다. 10
앙@@ 10
톤의 10
걷는다. 10
노선을 10
이르렀다. 10
취한 10
제의에 10
비스@@ 10
상대방의 10
지붕@@ 10
차례가 10
지난주에 10
원칙을 10
드에서 10
대통령의 10
릇@@ 10
시험에서 10
흔쾌히 10
눈썹을 10
찾으려고 10
지녔다. 10
중국에 10
논술@@ 10
싶지만, 10
프랑@@ 10
피곤했다. 10
질렀@@ 10
나이를 10
숨겼다. 10
붙잡았다. 10
주먹으로 10
심문을 10
찡@@ 10
맞은@@ 10
넘는 10
감쌌다. 10
되어졌다. 10
스카@@ 10
미소가 10
볼이 10
매는 10
수면@@ 10
발견되었다. 10
지나면 10
달래@@ 10
잠재@@ 10
배우가 10
댁@@ 10
명확@@ 10
친절한 10
고소했다. 10
저금@@ 10
망정 10
사업 10
피곤하게 10
곧게 10
모양이 10
도착하자마자 10
존중@@ 10
공허@@ 10
답답@@ 10
4시에 10
책망@@ 10
택시 10
애썼다. 10
셔츠의 10
변할 10
청중들이 10
중앙@@ 10
제에 10
취득@@ 10
브라운@@ 10
알려주었다. 10
부러졌다. 10
등에 10
어떻@@ 10
FO@@ 10
필요없다. 10
괴롭게 10
옴@@ 10
리러 10
망쳐@@ 10
서둘러@@ 10
당신께 10
돌보지 10
해결해야 10
개척@@ 10
처리하는 10
연료@@ 10
무고@@ 10
있으리라고 10
시냇@@ 10
왕래를 10
혈을 10
생각나지 10
조제@@ 10
공원에 10
하려던 10
징조이다. 10
대체@@ 10
것일 10
고맙습니다. 10
확인을 10
기쁘겠습니다. 10
어머니와 10
수리하는 10
공급을 10
내에서 10
어렵지 10
잡은 10
의사들은 10
옷과 10
배우기 10
그림이 10
통과하지 10
단번에 10
예측@@ 10
스케@@ 10
매장@@ 10
차지한다. 10
견딜 10
3개월@@ 10
수량이 10
재능@@ 10
히고 10
않으니, 10
에서만 10
밀하게 10
이것@@ 10
물품@@ 10
분석@@ 10
날은 10
큰비가 10
차려@@ 10
상쇄@@ 10
중간에 10
정오 10
하려@@ 10
연료 10
목록 10
유를 10
절약할 10
운반되어 10
다음달에 10
주식@@ 10
ro@@ 10
." 10
물건에 10
소설 10
백화@@ 10
인민은 10
대문@@ 10
이래로 10
"하고 10
번째@@ 10
단에 10
상관없이 10
생겨@@ 10
금액 10
권투 10
제외하고는 10
세기에 10
아마@@ 10
시작해서 10
후로 10
올라갈 10
들어왔을 10
기울여 10
주었을 10
재미있게 10
내년 10
않으면, 10
마찰@@ 10
영국에서 10
8월 10
청년 10
동안, 10
하였음을 10
프랭@@ 10
법원은 10
무선전@@ 10
갑판 10
삼촌@@ 10
23@@ 10
파견하여 10
상실@@ 10
극복할 10
증 10
부분에 10
어렵습니다. 10
계약의 10
and@@ 10
받아서, 10
이해했다. 10
열하는 10
vi@@ 10
지와 10
풍부한 10
V@@ 10
죄송하지만 10
분쟁을 10
증명하였다. 10
총탄이 10
분야@@ 10
어려움@@ 10
위해서이다. 10
하더라도 10
보조@@ 10
했으니 10
겠니? 10
군중의 10
번이나 10
매력이 10
염이 10
보내야 10
시절의 10
추억@@ 10
평상@@ 10
영도@@ 10
받았을 10
유산을 10
기대할 10
갈아 10
하여라. 10
어조로 10
구불구@@ 10
막대한 10
소년을 10
망쳐버렸다. 10
국에서 10
보도를 10
의기양양@@ 10
않으나, 10
품종의 10
전투 10
주인의 10
식민@@ 10
두드러@@ 10
해지는 10
나에 10
주문서는 10
안심해도 10
원한다면 10
만났던 10
다니. 10
영광입니다. 10
준비할 10
죽었다는 10
30분 10
생산할 10
부분이다. 10
보편적인 10
아내의 10
이른 10
해야한다. 10
당신에 10
사교 10
떠나려고 10
간다면, 10
주문할 10
예상한 10
상점의 10
노동자가 10
면화를 10
사회주의 10
어주었다. 10
싸서 10
못해서, 10
것이지만, 10
농장을 10
으므로, 10
한쪽에 10
가족의 10
그들@@ 10
인민을 10
요구하였다. 10
통과시켰다. 10
콘@@ 10
머무는 10
돌보는 10
유의 10
로움을 10
좋아하지만, 10
싶어서 10
주일을 10
솔직@@ 10
일들이 10
제시하는 10
규격@@ 10
회견@@ 10
을, 10
업무에 10
a 10
수익@@ 10
음악회를 10
대리 10
할아버지는 10
대원은 10
불구@@ 10
일생 10
대, 10
경악@@ 10
속에서, 10
사전의 10
무료로 10
주목@@ 10
지휘관은 10
위원회에 10
바라며, 10
11월 10
주문서 10
부분에서 10
년동안 10
할거라고 10
지불인으로 10
폭로했다. 10
잘게 9
체면을 9
사령@@ 9
그럴 9
긴장을 9
불러서 9
주방@@ 9
엷@@ 9
트로@@ 9
선거 9
껴@@ 9
구걸@@ 9
자리@@ 9
사상@@ 9
패를 9
켓을 9
신앙을 9
놓아@@ 9
지. 9
공정@@ 9
샌다. 9
수와 9
함과 9
재앙@@ 9
과일 9
올리다 9
실마리를 9
운을 9
금지. 9
보내주신 9
안녕하@@ 9
이한 9
기울어졌다. 9
om@@ 9
날카@@ 9
어디가 9
피운다. 9
속이고 9
구타@@ 9
조속한 9
바르게 9
깃발이 9
접해 9
세워 9
굴러@@ 9
이발@@ 9
벗고 9
세월이 9
가시@@ 9
둑@@ 9
리도록 9
길렀다. 9
듯하게 9
펜을 9
엎드려 9
핀다. 9
옵니까? 9
빨개졌다. 9
지켰다. 9
거울을 9
따뜻하다. 9
말했던 9
터널@@ 9
바느@@ 9
배부@@ 9
울린다. 9
두렵@@ 9
죽겠다. 9
때리@@ 9
소란@@ 9
따뜻하고 9
목요일에 9
형세가 9
세월을 9
덮어 9
좌초@@ 9
했다 9
달빛이 9
증강@@ 9
산더@@ 9
재수@@ 9
있다! 9
가리킨다. 9
종이는 9
기원한다. 9
기원@@ 9
한다! 9
키를 9
보다. 9
어젯@@ 9
가지런@@ 9
마시면 9
U@@ 9
벗어날 9
기름은 9
마십시오. 9
쓰레기를 9
지! 9
미치@@ 9
워진다. 9
엔진 9
눌러 9
틈으로 9
축축@@ 9
담아 9
조각으로 9
완전하게 9
스테@@ 9
균등하게 9
버려라. 9
여라. 9
날려@@ 9
만들었@@ 9
점까지 9
발급@@ 9
가루@@ 9
치마를 9
만들다. 9
페이지를 9
표시를 9
군인@@ 9
십자@@ 9
하늘로 9
층을 9
닐 9
허둥@@ 9
오려고 9
변 9
27@@ 9
소중히 9
털어@@ 9
취급@@ 9
성가시@@ 9
지마, 9
진실을 9
만지지 9
자지 9
향 9
벌리고 9
선생님에게 9
환자가 9
신음@@ 9
사망했다. 9
전기가 9
거품이 9
바닷@@ 9
아닙@@ 9
경시@@ 9
승 9
잘못이다. 9
사도록 9
변명을 9
느릿@@ 9
체력을 9
잉크로 9
바빠@@ 9
토론하고 9
형으로 9
입학 9
치마는 9
줘@@ 9
차량이 9
기어 9
장치를 9
데서 9
철을 9
먹어서 9
담배는 9
드물@@ 9
셔츠 9
들리는 9
겪었다. 9
닻@@ 9
전진하였다. 9
막혀 9
침대@@ 9
흡연@@ 9
수용할 9
전히 9
낭비하는 9
주말을 9
화원을 9
서적을 9
기차역@@ 9
교회@@ 9
잘못은 9
긍정@@ 9
싸움@@ 9
깃발을 9
엄격한 9
불로 9
타버렸다. 9
실종@@ 9
나아갔다. 9
대서@@ 9
재난@@ 9
댄@@ 9
교사는 9
냉각@@ 9
수축@@ 9
펼쳐@@ 9
있어. 9
사방에 9
치과@@ 9
시체를 9
격퇴@@ 9
강에 9
꽁@@ 9
공격했다. 9
지면이 9
땅이 9
지진으로 9
쾅@@ 9
전화벨이 9
엘리@@ 9
소이다. 9
라운@@ 9
접시가 9
전쟁에 9
요를 9
동물이 9
남지 9
김을 9
깝@@ 9
낀 9
어린이는 9
증기@@ 9
질병의 9
인정하지 9
소송@@ 9
피고@@ 9
허락했다. 9
전역@@ 9
걱정으로 9
파가 9
파리@@ 9
벗어나 9
사나@@ 9
하늘에서 9
예의를 9
기침을 9
서류가 9
모자가 9
숲을 9
서에서 9
부결@@ 9
새벽@@ 9
포함되어 9
허리가 9
귓속@@ 9
근처에 9
깜@@ 9
자원이 9
식한다. 9
해결되지 9
기한을 9
넓게 9
나아간다. 9
전국에 9
한참 9
시트를 9
앤@@ 9
하시도록 9
제공합니다. 9
사슬@@ 9
공정하게 9
민감@@ 9
으면서 9
왼쪽 9
럴 9
TV를 9
극장에서 9
자식@@ 9
차가@@ 9
피웠다. 9
녹초가 9
떠들썩@@ 9
논다. 9
애가 9
엄마에게 9
성으로 9
있나요? 9
헬렌은 9
쏠@@ 9
위스키를 9
Jean@@ 9
검정@@ 9
빵 9
폐허@@ 9
줘야 9
챘@@ 9
추월@@ 9
블 9
정원의 9
화원에 9
정원은 9
감으로 9
주지@@ 9
오신 9
뭐가 9
흔들며 9
화제로 9
건의가 9
명으로 9
좌석@@ 9
기차역에 9
불은 9
화상을 9
로도 9
대기@@ 9
설은 9
범죄를 9
굶주@@ 9
차지했다. 9
시기@@ 9
냅@@ 9
나오@@ 9
재킷@@ 9
라면, 9
통신@@ 9
나무들이 9
전류를 9
롤@@ 9
이른다. 9
극에 9
상점 9
피트 9
경축@@ 9
수학 9
쏟아 9
껴안았다. 9
면화 9
여름에는 9
출입@@ 9
들었습니다. 9
수면 9
자백@@ 9
벨트를 9
듣자하니 9
왈@@ 9
극장 9
연극 9
결정은 9
잡기 9
면의 9
표정을 9
시험이 9
손님들이 9
휩@@ 9
뽐@@ 9
한밤@@ 9
울려 9
파이@@ 9
빈둥빈둥 9
바닥 9
낭비했다. 9
추워서 9
고쳐 9
환영 9
출신이다. 9
불안하게 9
내용이 9
역사의 9
양국 9
사냥꾼이 9
눅@@ 9
ud@@ 9
순종@@ 9
성격을 9
시키다. 9
거칠@@ 9
돕고 9
싶어하지 9
흔적이 9
증거가 9
야구 9
양말을 9
메리는 9
늦지 9
출발하는 9
저녁밥을 9
밀을 9
멕시@@ 9
달려있다. 9
미사@@ 9
서늘@@ 9
언급할 9
들이받았다. 9
반감을 9
파티는 9
벽돌로 9
천으로 9
끝마쳤다. 9
하다가 9
인형을 9
힘들다. 9
소년에게 9
떴다. 9
물건이다. 9
노인의 9
살아있는 9
194@@ 9
누구에게 9
모양의 9
항구 9
러시아@@ 9
매혹@@ 9
만으로 9
실험은 9
떨렸다. 9
볼을 9
부쉈다. 9
잔뜩 9
사들은 9
태우@@ 9
물렸다. 9
한방에 9
맞췄다. 9
책상은 9
닮@@ 9
암탉@@ 9
최고로 9
창작@@ 9
양호하다. 9
발에 9
묻었다. 9
얘기할 9
뛰어다니@@ 9
수업에 9
가면 9
꾸준히 9
지겹@@ 9
끝냈@@ 9
단추@@ 9
적어@@ 9
겁니다. 9
공짜@@ 9
참석할 9
해석할 9
인도에 9
결백@@ 9
어떻다고 9
련한 9
좋아하십니까? 9
놀랐@@ 9
싶을 9
돈으로 9
털을 9
권한을 9
짐작@@ 9
산책@@ 9
상해에 9
도와주었다. 9
가리키는 9
해본 9
야기시켰다. 9
하얗게 9
나뭇가지 9
숲속에서 9
옥스포@@ 9
하늘 9
여자들은 9
3개월 9
맥주는 9
갑 9
쓰면 9
떨어지기 9
포도주는 9
엔 9
터졌다. 9
호텔 9
말라@@ 9
군을 9
바다에 9
장식이 9
얽@@ 9
펴 9
채웠다. 9
위스키 9
자루 9
남아서 9
지나가@@ 9
으십시오. 9
ul@@ 9
Mary의 9
까다@@ 9
개조@@ 9
해갔다. 9
이지만 9
누군@@ 9
으로만 9
심장은 9
동반@@ 9
신에게 9
흡수@@ 9
중단되었다. 9
셰익스피@@ 9
잘하는 9
타이어@@ 9
상교@@ 9
실현되었다. 9
생물@@ 9
나머@@ 9
에게만 9
성탄절이 9
사자는 9
1년@@ 9
분부@@ 9
대신할 9
h 9
장면이 9
스러움을 9
나라가 9
사병들이 9
그치지 9
잠자리에 9
입어 9
결정된다. 9
췄다. 9
1일부터 9
분명하게 9
지붕 9
탁자@@ 9
집안으로 9
돌이@@ 9
발한다. 9
4시 9
플라스@@ 9
뽑아 9
차례나 9
명세서를 9
보트를 9
가방에 9
갇혔다. 9
사기당했다. 9
사로잡혔다. 9
임명되었다. 9
펜스를 9
부드럽다. 9
평상시@@ 9
교과@@ 9
표현했다. 9
편견을 9
출석할 9
적당치 9
부주의로 9
하찮@@ 9
훔쳤다. 9
풍자@@ 9
훔쳤다고 9
혜를 9
겸손@@ 9
깨어났다. 9
산꼭대@@ 9
거칠게 9
대비@@ 9
싶다고 9
떠나갔다. 9
부인했다. 9
독특@@ 9
출되어 9
엄격하다. 9
기술은 9
시키고 9
부추겼다. 9
노력은 9
드러났다. 9
지혜는 9
광범@@ 9
일생은 9
깼다. 9
참가한다. 9
샘@@ 9
싫증이 9
율에 9
가책을 9
이해하고 9
습격@@ 9
만족한다. 9
외교 9
워싱@@ 9
연구했다. 9
견해가 9
없고 9
음료수를 9
성실한 9
맞춰 9
고독@@ 9
암이 9
사라고 9
득 9
정력을 9
으려는 9
초조하게 9
내로 9
제시했다. 9
되기로 9
고려했다. 9
익사@@ 9
지불한 9
박탈@@ 9
평소@@ 9
브라@@ 9
습격을 9
방해를 9
돌아온 9
것인가? 9
유죄라고 9
해변에 9
밤낮@@ 9
참관했다. 9
력이다. 9
선생님이다. 9
위협했다. 9
영혼@@ 9
해소@@ 9
밀접@@ 9
알아냈다. 9
계약에 9
쏟았다. 9
원조를 9
펴고 9
쓰기를 9
환심을 9
가슴@@ 9
상한 9
인쇄 9
감독@@ 9
세기의 9
직위에 9
잔혹한 9
신랄@@ 9
넘어 9
랬다. 9
불편함을 9
친절하게 9
득의@@ 9
부끄러워서 9
발전이 9
명되었다. 9
형식으로 9
해협@@ 9
괜찮은 9
빈둥거렸다. 9
증권@@ 9
하루를 9
체중이 9
카 9
죽이@@ 9
전력@@ 9
칭 9
방해했다. 9
맨 9
유럽에서 9
전압@@ 9
피트이다. 9
무엇이든 9
대표로 9
죽었을 9
취해 9
교제@@ 9
뛰는 9
입혔다. 9
보여주었다. 9
여행이 9
냥@@ 9
현실@@ 9
다이어@@ 9
도취@@ 9
외국어를 9
아프게 9
정원에서 9
병원에서 9
탔@@ 9
최근@@ 9
뜬다. 9
광이 9
나빠@@ 9
청중들은 9
청중이 9
친구들@@ 9
도서관에 9
하수@@ 9
판의 9
판매원은 9
그릇 9
가라@@ 9
33@@ 9
기사가 9
끝내는 9
하게@@ 9
인할 9
의장이 9
삼는다. 9
펄쩍 9
돌아왔@@ 9
느꼈@@ 9
B 9
꾸 9
사상은 9
불편하게 9
들리지 9
정거장에서 9
움직이는 9
작가가 9
생각지 9
여유@@ 9
돌아가야 9
얻는다. 9
여졌다. 9
정상에 9
읍@@ 9
규정에 9
허락해 9
트에서 9
수하여 9
십 9
현기@@ 9
분간@@ 9
편지봉@@ 9
따른다. 9
5000@@ 9
연필을 9
전으로 9
사람됨@@ 9
전문적으로 9
가벼@@ 9
일주일간 9
칼은 9
새끼 9
도로로 9
이상을 9
우뚝 9
일반 9
닫을 9
자만@@ 9
음악회의 9
분별@@ 9
증가시켰다. 9
멘@@ 9
건물을 9
흙@@ 9
고칠 9
성탄절을 9
에너지는 9
탄이 9
전사들은 9
밝게 9
가락@@ 9
무미건조@@ 9
유리 9
리허@@ 9
정확하지 9
그것보다 9
내놓@@ 9
기구는 9
유형의 9
보고서는 9
제품을 9
합법@@ 9
처리하기 9
엔진은 9
비할 9
물질은 9
닦아@@ 9
도시에는 9
찢어진 9
있어야만 9
돼지는 9
크리스마@@ 9
탄알이 9
든, 9
파운드에 9
", 9
어울@@ 9
위로를 9
겨진 9
사실의 9
이룰 9
경과를 9
자산@@ 9
전화로 9
협박@@ 9
귀사와 9
셀@@ 9
일이라고 9
거행할 9
지루@@ 9
좋겠습니다. 9
통조@@ 9
설이 9
브리@@ 9
중심@@ 9
신형 9
능 9
병사@@ 9
펼쳐졌다. 9
들어갔을 9
당연한 9
끊임없는 9
하더@@ 9
시작하여 9
결과 9
컸@@ 9
3주 9
1개월@@ 9
막는 9
마셨@@ 9
1일 9
임무는 9
계승@@ 9
과학자는 9
오퍼에 9
롬@@ 9
기한 9
생활하는 9
듣자마자 9
귀사 9
방법에 9
하기만 9
식품을 9
장난감 9
걸어가는 9
유감스럽지만 9
소리와 9
었지만 9
거두었@@ 9
예상했던 9
도착해야 9
교수는 9
왕래가 9
수천@@ 9
표시하는 9
정상적인 9
진행하고 9
강도가 9
경기의 9
남자와 9
시작하기 9
욕 9
자신도 9
도착하기 9
나간 9
들어간 9
농민은 9
발생하는 9
리차@@ 9
계속되는 9
부족을 9
가운데 9
어울리는 9
유동@@ 9
여자를 9
감언@@ 9
업자는 9
쫓아@@ 9
손가방을 9
표면을 9
동작을 9
마일의 9
센 9
제압@@ 9
옮겨@@ 9
건립@@ 9
걸릴 9
성곽@@ 9
견뎌@@ 9
하느냐? 9
취미가 9
참고하도록 9
장학금을 9
상대방@@ 9
정경을 9
원한다면, 9
문제와 9
않았다는 9
업무가 9
젊은이들은 9
합리적인 9
증권 9
샘플 9
이니, 9
석유 9
판매할 9
여기저기를 9
구해냈다. 9
는다면, 9
합리적@@ 9
관념@@ 9
서신을 9
같이, 9
세익스피@@ 9
CIF@@ 9
텔레비젼@@ 9
스미스는 9
스스로의 9
혁명 9
발생 9
진일보한 9
다양@@ 9
특징은 9
느끼는 9
하더라도, 9
생각하지만, 9
감에 9
하지@@ 9
직접@@ 9
체육 9
와서, 9
도서관@@ 9
허약@@ 9
완성하기 9
만나게 9
수리할 9
저렴@@ 9
참가하기를 9
기초를 9
였는데, 9
깨끗한 9
여겼@@ 9
임시로 9
새벽 9
거행하는 9
많기 9
서명을 9
노력으로 9
시에, 9
도서관에서 9
람 9
250@@ 9
나눈다. 9
현재@@ 9
있겠니? 9
군중 9
20일 9
하기도 9
책들을 9
식사에 9
마르크@@ 9
1시에 9
상당한 9
광 9
클레임을 9
회계@@ 9
통과하는 9
보기@@ 9
눌러@@ 9
...월@@ 9
수정을 9
"에 9
ill@@ 9
클레임 9
이후의 9
날에, 9
속도는 9
풋@@ 9
발생하였다. 9
ne@@ 9
너가 9
준다면 9
취소불@@ 9
것이다, 9
3월@@ 9
증가하였다. 9
금액에 9
는다면 9
1990@@ 9
문장불량 9
상공에서 9
도록, 9
들일 9
요일) 9
송장@@ 9
한지를 9
제한을 9
문과 9
예측했다. 9
지않다. 9
예감@@ 9
않길 9
포장 8
항의@@ 8
퍼붓@@ 8
꿇@@ 8
밀가@@ 8
환영합니다. 8
분쟁@@ 8
팽팽@@ 8
가? 8
하라. 8
\@@ 8
헤아@@ 8
폭파@@ 8
흐르는 8
통지했다. 8
켰@@ 8
화합@@ 8
둬@@ 8
젓@@ 8
비탈@@ 8
협상을 8
통제를 8
임무@@ 8
폭풍우에 8
폭풍우는 8
튀었다. 8
밧@@ 8
터무니@@ 8
화내지 8
한꺼번에 8
귤@@ 8
명하다. 8
밍@@ 8
해안 8
밭 8
파괴되었다. 8
퍼뜨@@ 8
힘써 8
범 8
햇빛을 8
아직@@ 8
왁@@ 8
홀 8
흐르고 8
호로 8
회전한다. 8
팀 8
쾅 8
닥 8
한가지 8
편이다. 8
호는 8
특별@@ 8
유죄@@ 8
판결했다. 8
딱딱@@ 8
투항@@ 8
폐기@@ 8
나다. 8
풍속@@ 8
씌@@ 8
젝@@ 8
뿔@@ 8
저리 8
함으로 8
해리는 8
뭄@@ 8
어때@@ 8
화원은 8
필요합니까? 8
회의의 8
쑥 8
램 8
편에 8
언 8
피었다. 8
프로그램이 8
할까? 8
즘 8
한가? 8
퍼레이@@ 8
헤프게 8
황이 8
챙@@ 8
플 8
화기를 8
표류@@ 8
핥았다. 8
화폐@@ 8
팡@@ 8
택시를 8
쩌@@ 8
당겨 8
이에서 8
편은 8
흉악@@ 8
골 8
굶@@ 8
신에 8
넌 8
핌@@ 8
떡@@ 8
틀림없다. 8
해왔다. 8
편견@@ 8
피부가 8
형에게 8
호의를 8
통보@@ 8
정통@@ 8
하다니, 8
행은 8
조금@@ 8
활기차@@ 8
감 8
해결되었다. 8
깬 8
팔걸@@ 8
팔꿈@@ 8
회복될 8
허 8
죄 8
팔에 8
팠다. 8
슬픔@@ 8
한잔을 8
눈빛@@ 8
둑 8
신앙@@ 8
힐끗 8
염을 8
극히 8
허둥지@@ 8
화신이다. 8
해안으로 8
선전@@ 8
열심@@ 8
엇@@ 8
넉@@ 8
학의 8
팁을 8
털었다. 8
투표를 8
포기할 8
행이 8
한두 8
턱을 8
틈이 8
화장을 8
침 8
태양은 8
현금을 8
그릇@@ 8
하느냐 8
쯤@@ 8
해주기를 8
판매량이 8
션 8
피부에 8
카메라@@ 8
통과되었다. 8
츰 8
토지에 8
럴@@ 8
피터@@ 8
쁜@@ 8
특수한 8
퇴색@@ 8
콩 8
현명@@ 8
표시하였다. 8
항목의 8
호감을 8
하였고, 8
합병@@ 8
폭탄을 8
눌 8
포장하여 8
하느냐@@ 8
어찌@@ 8
해달라고 8
학년 8
편리하도록 8
숴@@ 8
해준 8
황당한 8
표준에 8
명백@@ 8
필요하지 8
테니 8
발자@@ 8
포장을 8
혀서, 8
판로를 8
감은 8
륙 8
판단할 8
라고는 8
자세@@ 8
통해서, 8
하여서 8
필요에 8
합자@@ 8
기뻤@@ 8
합리@@ 8
괄@@ 8
편리하다. 8
향해서 8
함께@@ 8
확정할 8
호가 8
....@@ 8
하는, 8
흘러나왔다. 8
쨋@@ 8
짓 7
렵@@ 7
열한 7
충 7
랍 7
녀 7
o 7
쭉@@ 7
빻@@ 7
햇@@ 7
불가능@@ 7
견 7
마르@@ 7
뜻밖@@ 7
텅 7
뉜@@ 7
펫@@ 7
망 7
추 7
씹@@ 7
늠@@ 7
벳@@ 7
쭉 7
쏜@@ 7
숟@@ 7
시로 7
프로그@@ 7
다투@@ 7
랗@@ 7
뭐 7
마찬가지@@ 7
넥@@ 7
턱 7
컷 7
성적으로 7
솨@@ 7
동으로 7
가볍@@ 7
랬@@ 7
제멋@@ 7
사로@@ 7
틸 7
염 7
텼@@ 7
끔 7
단호@@ 7
쓴@@ 7
뻐@@ 7
스스@@ 7
엿@@ 7
관광@@ 7
사무실@@ 7
샐@@ 7
아프리@@ 7
중히 7
뺏@@ 7
화려@@ 7
다이@@ 7
맣@@ 7
쏴@@ 7
넷@@ 7
하느@@ 7
액의 7
푼 7
깥 7
틀림@@ 7
성탄@@ 7
률 7
5 7
효 7
령 7
냐 7
낼@@ 7
키 7
z@@ 7
바 7
완전@@ 7
쏟@@ 7
웰@@ 7
공개@@ 7
아닌@@ 7
꾼 7
클레@@ 7
처음@@ 7
CI@@ 7
련 7
뭇@@ 7
영원@@ 7
상당@@ 7
컬@@ 7
택 7
ㅇ@@ 7
됨@@ 7
꿍@@ 7
전에서 7
찰을 7
비슷@@ 7
낯@@ 7
오 7
쉴@@ 7
벨이 7
릎 6
폰@@ 6
뉘@@ 6
립니다. 6
곱 6
껑@@ 6
께서는 6
요일에 6
> 6
뻔@@ 6
닝 6
부었다. 6
옇@@ 6
윈@@ 6
힌@@ 6
딴 6
똥@@ 6
패 6
룰 6
웅 6
폼@@ 6
이윤@@ 6
끌 6
캐나@@ 6
일간 6
북 6
벅 6
렇게 6
위스@@ 6
쟁 6
뚝 6
틱 6
잽@@ 6
븐@@ 6
윙@@ 6
철 6
퓨@@ 6
펠@@ 6
뜰 6
줬@@ 6
릿@@ 6
시겠습니까? 6
춰 6
빛 6
빤@@ 6
띤@@ 6
꿨@@ 6
옥 6
벼 6
느낌@@ 6
덜 6
하고는 6
m 6
텔레비@@ 6
켤@@ 6
삼 6
핏@@ 6
룬다. 6
얹@@ 6
교묘@@ 6
간절@@ 6
순 6
마지@@ 6
헉@@ 6
툭 6
딴@@ 6
걱@@ 6
훔쳤@@ 6
빅@@ 6
앴@@ 6
넋@@ 6
늄@@ 6
킹@@ 6
용납@@ 6
바뀌@@ 6
맙@@ 6
소나@@ 6
텅@@ 6
c 6
1 6
활 6
닳@@ 6
각에 6
걱 6
199@@ 6
카메@@ 6
챔@@ 6
하자@@ 6
스미@@ 6
끽@@ 6
다툼@@ 6
빡@@ 6
딘@@ 6
자에서 6
- 6
구체@@ 6
진일@@ 6
무릅@@ 6
토 6
팠@@ 6
섰@@ 6
철저@@ 6
량으로 6
럽 6
해서@@ 6
일부터 6
장기@@ 6
부분 6
끈 5
깐@@ 5
런 5
픈@@ 5
세요@@ 5
슛@@ 5
콧@@ 5
큽@@ 5
팅@@ 5
착 5
낟@@ 5
좌에 5
래로 5
볶@@ 5
혐@@ 5
팍@@ 5
휙@@ 5
명세@@ 5
뺐@@ 5
V 5
잤@@ 5
터무@@ 5
2 5
컥 5
피 5
쿼@@ 5
성냥@@ 5
삭 5
구에서 5
궐@@ 5
의기@@ 5
갰@@ 5
부득@@ 5
짤@@ 5
뗏@@ 5
뛴@@ 5
긋 5
쪄@@ 5
웁@@ 5
답 5
딩@@ 5
궈 5
등하게 5
3 5
엇 5
im@@ 5
k 5
똑 5
봉 5
위해서@@ 5
이제@@ 5
엎드@@ 5
곧@@ 5
헬@@ 5
럭@@ 5
혁 5
짰@@ 5
겹 5
엮@@ 5
땄@@ 5
칵@@ 5
템@@ 5
대다@@ 5
멜@@ 5
컷@@ 5
헌 5
졸 5
턴 5
시아@@ 5
쁨@@ 5
잉 5
흑 5
잼@@ 5
엌@@ 5
귓@@ 5
어쨌@@ 5
브 5
앵@@ 5
[@@ 5
싱@@ 5
댈 5
적극@@ 5
럿@@ 5
즉 5
슬 5
스포@@ 5
솥@@ 5
긍@@ 5
늪@@ 5
시스@@ 5
뾰@@ 5
놀 5
갤@@ 5
킬 5
례 5
평 5
꼽@@ 5
일반@@ 5
즌@@ 5
잔혹@@ 5
쏴 5
름 5
킨 5
쫓겨@@ 5
불과@@ 5
젼 5
툭@@ 5
립 5
섯@@ 5
에게@@ 5
ack@@ 5
Jan@@ 5
렁 4
잠 4
시끄@@ 4
듭@@ 4
일찌@@ 4
A 4
꾹 4
칩@@ 4
궂@@ 4
Jon@@ 4
꺽@@ 4
뵙@@ 4
륨@@ 4
Bo@@ 4
촬@@ 4
취 4
C 4
쿵 4
쥔 4
쌀 4
봄 4
멉@@ 4
텔@@ 4
겁 4
우르@@ 4
제국@@ 4
$@@ 4
부근@@ 4
핥@@ 4
륙@@ 4
불쌍@@ 4
누 4
쟀@@ 4
틴 4
윙 4
링 4
뜩@@ 4
낀다. 4
근본@@ 4
쭙@@ 4
숲 4
한의 4
엘@@ 4
댕@@ 4
가깝@@ 4
쫑@@ 4
엾@@ 4
궈@@ 4
툴@@ 4
픕@@ 4
쁩@@ 4
씁@@ 4
유익@@ 4
뭔@@ 4
팝@@ 4
눠@@ 4
신이다. 4
헹@@ 4
킵@@ 4
/ 4
솨 4
큼@@ 4
머리카@@ 4
렛 4
확 4
떤@@ 4
쩔@@ 4
썽@@ 4
샴@@ 4
돗@@ 4
픈 4
머 4
쪘@@ 4
독 4
핑 4
숄@@ 4
빤 4
섹@@ 4
돼 4
이프@@ 4
헝@@ 4
쁠@@ 4
탠@@ 4
' 4
뛸 4
셋 4
톡@@ 4
밴@@ 4
쾌히 4
콕@@ 4
롯@@ 4
윤 4
닉@@ 4
바랍@@ 4
이리@@ 4
땠@@ 4
데려@@ 4
렷@@ 4
펄@@ 4
덴@@ 4
켈@@ 4
펼 4
넬@@ 4
듭 4
온이 4
쯤 4
스피@@ 4
떳@@ 4
Georg@@ 4
씀 4
오스트@@ 4
핵 4
벨 4
룻@@ 4
몄@@ 4
가에게 4
자질@@ 4
랍@@ 4
마침@@ 4
압 4
튼 4
셉@@ 4
쐬@@ 4
r 4
릭@@ 4
술한 4
&@@ 4
무렵@@ 4
마자, 4
첼@@ 4
통상@@ 4
텍@@ 4
빳@@ 4
킬@@ 4
Z@@ 4
싹 4
분위@@ 4
룬 4
힐@@ 4
뽀@@ 4
떡 4
머리카락@@ 4
좇@@ 3
띤 3
짐 3
접 3
킨다. 3
홉 3
밉@@ 3
쐐@@ 3
암 3
끝 3
퉁@@ 3
4 3
톨@@ 3
닭 3
쨍@@ 3
볍@@ 3
꽝@@ 3
컹@@ 3
잎 3
탉@@ 3
털 3
뒹@@ 3
쌩 3
끽 3
손짓@@ 3
메어@@ 3
뼈 3
팡 3
깠@@ 3
뚜@@ 3
켤 3
츠 3
뭡@@ 3
놨@@ 3
l 3
뒀@@ 3
찧@@ 3
엊@@ 3
알이 3
쉿@@ 3
쉿 3
옵@@ 3
j@@ 3
깼@@ 3
환 3
뜻 3
숱@@ 3
쉰 3
푸 3
Joh@@ 3
콥@@ 3
셌@@ 3
쏠 3
깰 3
#@@ 3
휘 3
툰@@ 3
밤새@@ 3
멧@@ 3
Pet@@ 3
쫙 3
뱉@@ 3
훤@@ 3
빙 3
빨 3
랙@@ 3
갯@@ 3
즘@@ 3
땔@@ 3
피트@@ 3
킷@@ 3
야말로 3
젠 3
산골@@ 3
응 3
췌@@ 3
멍 3
홑@@ 3
앨 3
땡@@ 3
엣@@ 3
P 3
럼 3
픽 3
w 3
평을 3
]@@ 3
괜@@ 3
라스@@ 3
흙 3
줘 3
렬 3
$ 3
콘 3
겐 3
뺄 3
뜸@@ 3
클 3
잦@@ 3
엄 3
껴 3
육 3
mi@@ 3
익 3
릉 3
곽 3
협 3
혈 3
흥 3
틈 3
컵 3
뻐 3
치마@@ 3
텁@@ 3
좌 3
최대@@ 3
헷@@ 3
츰@@ 3
혹 3
낍@@ 3
뎌@@ 3
껌@@ 3
짢@@ 3
뒷 3
찐@@ 3
떨 3
틴@@ 3
덟 3
ean@@ 3
빴@@ 3
오랫@@ 3
늄 3
촉 3
앙 3
I 3
칸 3
뀜@@ 3
핀 3
델 3
갸@@ 3
진창@@ 3
널 3
진일보@@ 3
뗐@@ 3
상세@@ 3
만, 3
믈@@ 3
팥@@ 3
탬@@ 3
짠@@ 3
노 3
커 3
볏@@ 3
쩐@@ 3
반드@@ 3
룹@@ 3
구나@@ 3
댄 3
찍이 3
맛 3
덩 3
주먹@@ 3
뻣@@ 3
짜증@@ 3
룁@@ 2
정오@@ 2
儉@@ 2
枷@@ 2
鋸@@ 2
\ 2
춤 2
콸@@ 2
콸 2
깔 2
팁@@ 2
힘 2
갓@@ 2
9 2
뇌 2
읊@@ 2
댓@@ 2
쿡@@ 2
쿡 2
쌍 2
먹 2
얌@@ 2
쉰@@ 2
낑@@ 2
짱 2
쌩@@ 2
잴 2
~ 2
씸@@ 2
맵@@ 2
칙 2
팬 2
슴@@ 2
갤 2
멕@@ 2
웰 2
칵 2
깍 2
띈@@ 2
꼴 2
떴@@ 2
깬@@ 2
챈@@ 2
몰 2
너무@@ 2
꿉@@ 2
짬@@ 2
렬히 2
눗@@ 2
벚@@ 2
Smi@@ 2
벡@@ 2
q@@ 2
쉬 2
M 2
피아@@ 2
농 2
얀@@ 2
낙 2
듬 2
닌다. 2
란다. 2
악 2
벳 2
낏 2
녔@@ 2
쭐@@ 2
므@@ 2
뛸@@ 2
곯@@ 2
떼 2
아무렇@@ 2
씬@@ 2
애 2
칼 2
똘@@ 2
겊@@ 2
낮 2
쥐 2
뗄 2
샅@@ 2
말하자@@ 2
근처@@ 2
커미@@ 2
샐 2
킹 2
픽@@ 2
닌@@ 2
땐 2
텝@@ 2
뱀 2
꽥@@ 2
콕 2
셰@@ 2
춧@@ 2
둬 2
부드@@ 2
빕@@ 2
궁 2
씬 2
푹@@ 2
흘 2
땐@@ 2
냥 2
팥 2
녁@@ 2
딛@@ 2
천천@@ 2
태 2
앤 2
지않아 2
컥@@ 2
겐@@ 2
뵈@@ 2
뻥@@ 2
꼿@@ 2
샜@@ 2
찮@@ 2
하마@@ 2
맸@@ 2
볐@@ 2
씽@@ 2
벤 2
꺽 2
캘리포니@@ 2
차도 2
맬 2
b 2
x 2
귄 2
큘@@ 2
찐 2
딸 2
짤 2
ㅣ@@ 2
ㄷ@@ 2
찼@@ 2
파운@@ 2
갸 2
낀@@ 2
쌌@@ 2
띨 2
델@@ 2
츄@@ 2
래도 2
으 2
집고 2
기독@@ 2
윌@@ 2
롤 2
듣자@@ 2
힙@@ 2
짊@@ 2
옹 2
랩@@ 2
뮌@@ 2
넸@@ 2
균 2
쇠 2
왜냐@@ 2
도록@@ 2
룸@@ 2
횃@@ 2
엥@@ 2
뭄 2
펙@@ 2
룹 2
꽁 2
칩니다. 2
켄@@ 2
싸 2
오스트레일@@ 2
딧@@ 2
뢰 2
밸@@ 2
룰@@ 2
씀@@ 2
슭 2
·@@ 2
캡@@ 2
레비@@ 2
빼 2
헥 2
낌 2
공에서 2
얄@@ 2
오히@@ 2
팻@@ 2
논 2
즌 2
쏜 2
펌 2
겔@@ 2
< 2
뜬 2
쁘@@ 2
냅니다. 2
굽 2
깐 2
괴 2
] 2
늬 2
비로@@ 2
듀@@ 2
역할@@ 2
엘 2
뼛@@ 2
땀 2
떠들@@ 2
믹@@ 2
두꺼@@ 2
쑥@@ 2
덴 2
징 2
f 2
됩@@ 2
L 2
셸@@ 2
삐 2
렵 2
앰@@ 2
뀐 2
남 2
쿨@@ 2
깅@@ 2
섬 2
킁@@ 2
념 2
톡 2
툰 2
냇@@ 2
촘@@ 2
궜@@ 2
챈 2
보다@@ 2
콰@@ 2
컴@@ 2
뜬@@ 1
솎@@ 1
꾸준@@ 1
짇@@ 1
획 1
하얗@@ 1
8 1
햄 1
팜@@ 1
볕 1
랴@@ 1
씽 1
삯@@ 1
륜@@ 1
폼 1
녘@@ 1
팩@@ 1
똥 1
괘@@ 1
캑@@ 1
캑 1
뻬@@ 1
봇@@ 1
걀 1
오로@@ 1
빚 1
좁 1
팸@@ 1
찜@@ 1
곰 1
뀔 1
뱄@@ 1
뚤@@ 1
낱 1
잴@@ 1
ㅇ 1
닙@@ 1
찜 1
랠@@ 1
텄@@ 1
퓰@@ 1
핫 1
컫@@ 1
땡 1
티 1
℃@@ 1
죔@@ 1
잣@@ 1
쐈@@ 1
큼 1
끊임@@ 1
슘@@ 1
뇨@@ 1
졍@@ 1
핫@@ 1
툼 1
쬔@@ 1
낫 1
개졌다. 1
뎌 1
겸 1
댈@@ 1
넛 1
버 1
완 1
수수께@@ 1
껄@@ 1
덤 1
튄 1
끗 1
펐다. 1
썬@@ 1
왓@@ 1
꿈 1
픔 1
퉈@@ 1
뎠@@ 1
뗍@@ 1
기진맥@@ 1
↔@@ 1
휴 1
셜@@ 1
싼@@ 1
붇@@ 1
휠@@ 1
낄 1
융 1
뼛 1
밌@@ 1
틔@@ 1
잭 1
챗@@ 1
텨 1
넙@@ 1
줌@@ 1
꾹@@ 1
팍 1
솥 1
륵@@ 1
륵 1
빔@@ 1
퇴 1
슘 1
빌 1
튄@@ 1
겟@@ 1
맥 1
규 1
율 1
아랑@@ 1
텨@@ 1
쨍 1
빗 1
맘 1
곁 1
필사@@ 1
팝 1
베 1
윌 1
조만@@ 1
젼@@ 1
ㅎ@@ 1
긔 1
ㅂ@@ 1
훼@@ 1
ㅆ@@ 1
납 1
썰 1
곬@@ 1
딩 1
덧 1
크리스@@ 1
졀@@ 1
[ 1
굿@@ 1
닢@@ 1
겆@@ 1
렴 1
궐 1
맒@@ 1
훗@@ 1
헛 1
꺼 1
倒@@ 1
敍@@ 1
法@@ 1
폈@@ 1
욋@@ 1
나눈@@ 1
꼇@@ 1
T 1
튤@@ 1
슴 1
췄@@ 1
곽@@ 1
뱅 1
쁩니다. 1
이튿@@ 1
쥬@@ 1
딜@@ 1
검 1
ㅅ@@ 1
챌 1
쎄 1
갱 1
찌 1
어슬@@ 1
핍 1
ㅁ@@ 1
ㅊ 1
텀@@ 1
룔@@ 1
룩 1
瓜@@ 1
퍅@@ 1
僅 1
략 1
웬 1
녕 1
三@@ 1
넨 1
紫@@ 1
銅@@ 1
뮬@@ 1
딜 1
z 1
텐 1
뺀 1
뗄@@ 1
냘@@ 1
랙 1
일련@@ 1
댔@@ 1
H 1
몬 1
둡@@ 1
뤄 1
큐@@ 1
눈썹@@ 1
엑@@ 1
룡@@ 1
욱 1
걔@@ 1
뼜@@ 1
랠 1
딧 1
쥴@@ 1
불량 1
헤 1
겊 1
넬 1
퇘@@ 1
i 1
첩 1
꼇 1
뷴@@ 1
렌은 1
꿀 1
ㅏ@@ 1
귈 1
뤼@@ 1
꿎@@ 1
젠@@ 1
왠@@ 1
멩@@ 1
굿 1
쏙 1
N 1
옅@@ 1
쩡 1
셀 1
꿴 1
엽 1
쇨 1
킥@@ 1
지마@@ 1
킷 1
6 1
웍@@ 1
뷔@@ 1
의치 1
“@@ 1
j 1
u 1
S 1
& 1
삿@@ 1
갹@@ 1
렘@@ 1
틸@@ 1
젝 1
=@@ 1
겉 1
갠@@ 1
껄 1
밖 1
헥@@ 1
랫 1
뀐@@ 1
샹@@ 1
鑄@@ 1
造 1
꽉@@ 1
켭@@ 1
無@@ 1
力@@ 1
웸@@ 1
캘@@ 1
헛되@@ 1
잰@@ 1
궤 1
끕@@ 1
쿨 1
짚 1
굼@@ 1
곶@@ 1
팼@@ 1
꿩@@ 1
뺑@@ 1
뺌@@ 1
뭣 1
그럭저@@ 1
낭 1
귤 1
펭@@ 1
귄@@ 1
팁 1
콜 1
페 1
릅 1
풉@@ 1
껏@@ 1
맹 1
몫 1
뼘@@ 1
슐 1
뎄@@ 1
꼰 1
렇@@ 1
홱 1
릇 1
쟈@@ 1
닷@@ 1
힝@@ 1
` 1
싯@@ 1
댜@@ 1
ㄹ@@ 1
섣@@ 1
믐@@ 1
홋@@ 1
숴 1
삔 1
럭 1
괭@@ 1
냅 1
김 1
꼐@@ 1
찹@@ 1
뻤@@ 1
괸 1
소침@@ 1
닺@@ 1
장학@@ 1
밈@@ 1
퍽@@ 1
퍽 1
탰@@ 1
슥@@ 1
슥 1
넝@@ 1
맙소사@@ 1
칫 1
Q@@ 1
쵸@@ 1
낄@@ 1
삳@@ 1
밑 1
핏 1
녘 1
괌@@ 1
꼐 1
맏@@ 1
켠@@ 1
럿 1
쬔 1
볕@@ 1
숨 1
렌 1
뀔@@ 1
짠 1
되 1
꽈@@ 1
죙@@ 1
議@@ 1
事@@ 1
뺄@@ 1
쉼@@ 1
탤@@ 1
윽@@ 1
녹 1
삑@@ 1
삑 1
묽@@ 1
잿@@ 1
각양각@@ 1
